<pad>	0
<s>	0
</s>	0
<unk>	0
<PADDING>	0
<STARTLINE>	0
<ENDLINE>	0
<UNKNOWN>	0
▁t	-0
he	-1
▁a	-2
▁s	-3
in	-4
ou	-5
▁w	-6
▁the	-7
re	-8
nd	-9
ha	-10
▁b	-11
▁o	-12
▁m	-13
▁f	-14
▁I	-15
it	-16
▁to	-17
ing	-18
▁l	-19
er	-20
ll	-21
▁d	-22
▁c	-23
ed	-24
▁h	-25
is	-26
▁y	-27
ow	-28
▁he	-29
or	-30
ar	-31
es	-32
om	-33
▁A	-34
▁you	-35
▁T	-36
on	-37
hat	-38
▁"	-39
▁g	-40
▁n	-41
▁it	-42
▁of	-43
ay	-44
gh	-45
ve	-46
▁and	-47
an	-48
▁ha	-49
▁p	-50
as	-51
en	-52
▁th	-53
▁in	-54
et	-55
ld	-56
im	-57
ot	-58
ke	-59
▁on	-60
id	-61
▁And	-62
▁be	-63
▁W	-64
ght	-65
le	-66
."	-67
ut	-68
st	-69
se	-70
▁st	-71
oo	-72
▁The	-73
▁H	-74
at	-75
▁u	-76
▁r	-77
▁e	-78
▁that	-79
out	-80
▁me	-81
ad	-82
▁S	-83
ith	-84
▁him	-85
ch	-86
▁B	-87
ight	-88
▁for	-89
ver	-90
▁k	-91
ome	-92
ck	-93
ee	-94
▁as	-95
ir	-96
if	-97
▁was	-98
▁He	-99
You	-100
ould	-101
▁with	-102
▁O	-103
▁his	-104
ce	-105
▁is	-106
▁kn	-107
▁fr	-108
her	-109
▁we	-110
ill	-111
▁not	-112
▁have	-113
▁do	-114
▁out	-115
ind	-116
▁li	-117
ly	-118
▁You	-119
▁see	-120
ter	-121
▁sa	-122
▁whe	-123
ur	-124
all	-125
▁so	-126
▁all	-127
▁know	-128
▁go	-129
am	-130
ore	-131
▁But	-132
ake	-133
ell	-134
ain	-135
▁re	-136
▁at	-137
▁from	-138
one	-139
our	-140
▁an	-141
▁say	-142
▁there	-143
ough	-144
ood	-145
ust	-146
▁up	-147
▁le	-148
hing	-149
ook	-150
ound	-151
▁them	-152
il	-153
▁To	-154
▁what	-155
▁they	-156
al	-157
ink	-158
?"	-159
▁su	-160
▁wh	-161
own	-162
▁sh	-163
▁L	-164
▁if	-165
▁can	-166
▁like	-167
▁my	-168
▁had	-169
▁M	-170
▁It	-171
▁no	-172
ep	-173
red	-174
▁she	-175
▁wor	-176
▁one	-177
ra	-178
ant	-179
way	-180
▁did	-181
han	-182
▁ne	-183
▁down	-184
▁her	-185
ought	-186
▁think	-187
▁N	-188
▁your	-189
lf	-190
pp	-191
ro	-192
▁don	-193
ess	-194
▁or	-195
▁are	-196
▁way	-197
ak	-198
ie	-199
ide	-200
▁sp	-201
▁man	-202
▁some	-203
▁F	-204
ack	-205
ard	-206
▁lo	-207
▁look	-208
un	-209
ent	-210
▁us	-211
ast	-212
▁when	-213
▁ag	-214
▁would	-215
▁too	-216
ry	-217
▁br	-218
▁'	-219
▁j	-220
here	-221
▁but	-222
▁said	-223
▁want	-224
nt	-225
ong	-226
ree	-227
▁al	-228
▁by	-229
▁That	-230
um	-231
uch	-232
nder	-233
ear	-234
▁come	-235
▁could	-236
art	-237
▁cl	-238
▁fl	-239
▁make	-240
▁thing	-241
▁D	-242
ame	-243
itt	-244
ose	-245
▁ke	-246
self	-247
▁off	-248
▁ever	-249
ct	-250
ss	-251
▁C	-252
▁any	-253
▁let	-254
ne	-255
urn	-256
omet	-257
▁back	-258
and	-259
ive	-260
▁We	-261
▁What	-262
▁much	-263
▁where	-264
ge	-265
ers	-266
▁Of	-267
▁ro	-268
ther	-269
▁far	-270
▁get	-271
▁then	-272
▁gr	-273
▁lea	-274
▁They	-275
▁here	-276
▁this	-277
▁pl	-278
▁com	-279
▁than	-280
au	-281
▁tim	-282
▁hand	-283
▁again	-284
▁their	-285
▁She	-286
▁thr	-287
▁didn	-288
ves	-289
▁ab	-290
▁tr	-291
▁our	-292
ittle	-293
▁over	-294
are	-295
hen	-296
ick	-297
▁af	-298
▁more	-299
wn	-300
▁As	-301
▁how	-302
▁just	-303
▁wind	-304
▁little	-305
ft	-306
ol	-307
op	-308
alk	-309
ure	-310
▁good	-311
other	-312
▁With	-313
▁been	-314
omething	-315
ace	-316
▁bl	-317
▁mo	-318
▁se	-319
▁sn	-320
ouse	-321
▁time	-322
▁will	-323
ew	-324
▁v	-325
ark	-326
ild	-327
▁Or	-328
▁bo	-329
▁co	-330
▁now	-331
▁away	-332
▁take	-333
▁tell	-334
▁house	-335
▁night	-336
▁thought	-337
pt	-338
est	-339
▁sc	-340
▁day	-341
▁saw	-342
▁were	-343
▁going	-344
▁G	-345
ade	-346
ble	-347
ion	-348
ist	-349
▁bu	-350
▁keep	-351
▁seem	-352
el	-353
arn	-354
ass	-355
▁Wh	-356
▁won	-357
thing	-358
▁find	-359
▁turn	-360
▁work	-361
▁There	-362
▁other	-363
▁right	-364
▁should	-365
wo	-366
▁Th	-367
▁ar	-368
fore	-369
ount	-370
▁long	-371
▁must	-372
▁only	-373
th	-374
ife	-375
ove	-376
▁Be	-377
▁So	-378
▁ch	-379
▁sm	-380
▁has	-381
▁sha	-382
▁gone	-383
▁about	-384
▁every	-385
▁through	-386
▁something	-387
ig	-388
ike	-389
ite	-390
orn	-391
▁sl	-392
▁sle	-393
▁wall	-394
▁wood	-395
pe	-396
qu	-397
▁In	-398
▁de	-399
▁fe	-400
ways	-401
▁bet	-402
▁may	-403
▁sun	-404
▁tre	-405
▁who	-406
▁call	-407
▁round	-408
▁under	-409
▁though	-410
ase	-411
che	-412
ift	-413
▁gl	-414
▁la	-415
reat	-416
ving	-417
ward	-418
▁Not	-419
▁wat	-420
▁whi	-421
▁left	-422
He	-423
ps	-424
ri	-425
▁R	-426
ate	-427
ish	-428
ort	-429
ren	-430
▁If	-431
▁con	-432
ather	-433
▁door	-434
▁things	-435
ul	-436
we	-437
air	-438
led	-439
▁bed	-440
▁bir	-441
▁When	-442
▁made	-443
▁went	-444
▁light	-445
▁never	-446
!"	-447
▁P	-448
ave	-449
ved	-450
▁An	-451
▁put	-452
▁snow	-453
▁such	-454
▁talk	-455
▁year	-456
▁those	-457
,"	-458
ag	-459
ic	-460
age	-461
ber	-462
ice	-463
oth	-464
▁en	-465
▁pe	-466
▁For	-467
▁ask	-468
▁fir	-469
▁its	-470
▁old	-471
▁two	-472
▁came	-473
▁flow	-474
▁heard	-475
▁might	-476
▁place	-477
▁sleep	-478
▁looked	-479
▁window	-480
ach	-481
ied	-482
ock	-483
ost	-484
▁No	-485
▁One	-486
▁boy	-487
▁str	-488
▁hear	-489
▁room	-490
▁tree	-491
▁after	-492
▁trees	-493
▁always	-494
dd	-495
fe	-496
ng	-497
us	-498
▁J	-499
▁U	-500
ire	-501
ise	-502
oor	-503
▁dr	-504
▁ex	-505
▁ey	-506
What	-507
akes	-508
ause	-509
hind	-510
less	-511
ting	-512
▁got	-513
▁int	-514
▁Some	-515
▁dark	-516
▁farm	-517
▁knew	-518
▁love	-519
▁says	-520
▁ought	-521
▁still	-522
▁wouldn	-523
▁himself	-524
lp	-525
od	-526
▁E	-527
ady	-528
ool	-529
ull	-530
▁el	-531
▁te	-532
ield	-533
pped	-534
▁dre	-535
▁pre	-536
cause	-537
eside	-538
▁Like	-539
▁feet	-540
▁took	-541
▁word	-542
orning	-543
▁first	-544
.'	-545
ars	-546
ine	-547
row	-548
▁On	-549
ling	-550
ring	-551
▁spe	-552
▁care	-553
▁fall	-554
▁half	-555
▁help	-556
▁last	-557
▁mean	-558
▁past	-559
▁stay	-560
ountain	-561
▁enough	-562
▁against	-563
▁nothing	-564
ks	-565
ern	-566
get	-567
ted	-568
uck	-569
▁St	-570
▁am	-571
▁sw	-572
Well	-573
ared	-574
ross	-575
▁bre	-576
▁hay	-577
▁law	-578
▁own	-579
▁set	-580
▁Will	-581
▁bird	-582
▁else	-583
▁home	-584
▁hour	-585
▁into	-586
▁kind	-587
▁need	-588
▁peop	-589
▁well	-590
▁Where	-591
▁stand	-592
▁three	-593
▁which	-594
▁behind	-595
▁better	-596
▁morning	-597
amp	-598
ged	-599
igh	-600
imb	-601
old	-602
ous	-603
ven	-604
yer	-605
ctor	-606
side	-607
very	-608
▁app	-609
▁ple	-610
night	-611
where	-612
▁does	-613
▁four	-614
▁glad	-615
▁head	-616
▁kept	-617
▁life	-618
▁mind	-619
▁name	-620
▁once	-621
▁pass	-622
▁rest	-623
▁being	-624
▁child	-625
▁climb	-626
▁found	-627
▁water	-628
▁before	-629
▁leaves	-630
▁people	-631
It	-632
Wh	-633
me	-634
te	-635
The	-636
ken	-637
▁My	-638
▁ac	-639
▁qu	-640
▁wa	-641
▁wo	-642
▁cha	-643
▁end	-644
▁fee	-645
▁mil	-646
There	-647
aking	-648
ellow	-649
rying	-650
▁barn	-651
▁both	-652
▁chan	-653
▁many	-654
▁road	-655
▁slow	-656
▁told	-657
▁town	-658
▁field	-659
▁leave	-660
▁young	-661
▁beside	-662
▁coming	-663
▁lawyer	-664
▁wonder	-665
▁mountain	-666
ful	-667
hed	-668
les	-669
oub	-670
per	-671
▁At	-672
▁By	-673
▁Do	-674
▁Fr	-675
▁un	-676
ever	-677
iend	-678
raid	-679
▁His	-680
▁beg	-681
▁dis	-682
▁gra	-683
▁men	-684
▁run	-685
▁win	-686
▁Anne	-687
▁Then	-688
▁give	-689
▁pick	-690
▁show	-691
▁side	-692
▁sure	-693
▁walk	-694
▁brook	-695
▁hands	-696
▁heart	-697
▁Before	-698
▁myself	-699
▁thinks	-700
▁turned	-701
▁winter	-702
▁flowers	-703
▁pasture	-704
ue	-705
ze	-706
anc	-707
att	-708
ole	-709
able	-710
arth	-711
ches	-712
ence	-713
ened	-714
ered	-715
eser	-716
ired	-717
ween	-718
▁Don	-719
▁How	-720
▁Let	-721
▁big	-722
▁bur	-723
▁har	-724
▁pro	-725
▁top	-726
▁war	-727
▁cour	-728
▁fool	-729
▁lift	-730
▁load	-731
▁till	-732
gether	-733
▁great	-734
▁miles	-735
▁sound	-736
▁speak	-737
▁stove	-738
▁afraid	-739
▁friend	-740
▁ground	-741
▁another	-742
ix	-743
ms	-744
Yes	-745
ail	-746
ank	-747
eep	-748
ies	-749
ile	-750
oud	-751
ung	-752
▁fo	-753
▁po	-754
▁ri	-755
▁sk	-756
erha	-757
ilas	-758
ince	-759
lves	-760
pper	-761
ries	-762
tern	-763
▁Who	-764
▁lan	-765
▁ran	-766
▁why	-767
arren	-768
atter	-769
ither	-770
▁dear	-771
▁even	-772
▁feel	-773
▁five	-774
▁goes	-775
▁less	-776
▁sort	-777
▁upon	-778
▁wife	-779
erhaps	-780
eserve	-781
ometim	-782
▁doesn	-783
▁earth	-784
▁haven	-785
▁stood	-786
▁years	-787
▁around	-788
▁course	-789
▁please	-790
▁because	-791
▁getting	-792
▁someone	-793
▁anything	-794
▁together	-795
But	-796
ath	-797
ked	-798
mon	-799
ows	-800
ped	-801
sed	-802
umb	-803
▁cr	-804
▁pr	-805
airs	-806
ally	-807
atch	-808
ched	-809
ings	-810
ntil	-811
▁All	-812
▁Why	-813
▁air	-814
▁bad	-815
▁bel	-816
▁cur	-817
▁lay	-818
▁sit	-819
roken	-820
stand	-821
▁From	-822
▁More	-823
▁best	-824
▁dead	-825
▁doub	-826
▁eyes	-827
▁face	-828
▁fire	-829
▁hill	-830
▁late	-831
▁moon	-832
▁near	-833
▁seen	-834
▁wish	-835
▁comes	-836
▁count	-837
▁grass	-838
▁learn	-839
▁small	-840
▁wants	-841
▁white	-842
▁woods	-843
▁couldn	-844
▁saying	-845
ometimes	-846
▁Meserve	-847
▁lantern	-848
▁without	-849
▁everything	-850
We	-851
dv	-852
ff	-853
Don	-854
ary	-855
hes	-856
ign	-857
itc	-858
ity	-859
ope	-860
uit	-861
▁Af	-862
▁Sl	-863
▁wr	-864
cern	-865
ider	-866
iled	-867
ised	-868
mber	-869
most	-870
oice	-871
tain	-872
▁Out	-873
▁Was	-874
▁ans	-875
▁cle	-876
▁eye	-877
▁fol	-878
▁lau	-879
▁mis	-880
▁new	-881
▁smo	-882
▁tra	-883
ching	-884
ening	-885
iling	-886
ouble	-887
▁cold	-888
▁lamp	-889
▁play	-890
▁soon	-891
▁step	-892
▁warm	-893
selves	-894
▁Silas	-895
▁alone	-896
▁begin	-897
▁birds	-898
▁doing	-899
▁doubt	-900
▁dream	-901
▁makes	-902
▁meant	-903
▁seems	-904
▁shall	-905
▁since	-906
▁these	-907
▁world	-908
▁almost	-909
▁anyone	-910
▁mother	-911
▁seemed	-912
▁between	-913
▁concern	-914
▁yourself	-915
▁understand	-916
No	-917
Oh	-918
ab	-919
ac	-920
av	-921
sh	-922
ty	-923
And	-924
als	-925
mer	-926
und	-927
▁Is	-928
▁Oh	-929
▁da	-930
▁gu	-931
ated	-932
ping	-933
▁Len	-934
▁adv	-935
▁ber	-936
▁cut	-937
▁dro	-938
▁isn	-939
▁pay	-940
▁pol	-941
▁sat	-942
▁stu	-943
▁yes	-944
▁yet	-945
inted	-946
light	-947
ppose	-948
▁Cole	-949
▁Good	-950
▁Than	-951
▁days	-952
▁done	-953
▁happ	-954
▁held	-955
▁list	-956
▁ratt	-957
▁same	-958
▁stor	-959
▁stra	-960
▁very	-961
▁wait	-962
▁wasn	-963
▁wild	-964
▁above	-965
▁asked	-966
▁black	-967
▁bring	-968
▁hours	-969
▁moved	-970
▁voice	-971
▁across	-972
▁spring	-973
▁toward	-974
▁wanted	-975
▁brother	-976
▁concerned	-977
,'	-978
ap	-979
ci	-980
gs	-981
oe	-982
▁Y	-983
Why	-984
ang	-985
day	-986
ens	-987
iew	-988
ily	-989
ons	-990
pan	-991
pen	-992
rag	-993
ret	-994
the	-995
wer	-996
▁Sh	-997
▁em	-998
▁tw	-999
aded	-1000
ames	-1001
ason	-1002
ater	-1003
bour	-1004
dden	-1005
door	-1006
ines	-1007
ness	-1008
ning	-1009
orry	-1010
read	-1011
ress	-1012
teen	-1013
▁bow	-1014
▁bus	-1015
▁car	-1016
▁des	-1017
▁lie	-1018
▁mow	-1019
▁rec	-1020
▁rep	-1021
▁ret	-1022
▁sil	-1023
▁sky	-1024
▁spo	-1025
▁ten	-1026
▁use	-1027
▁wom	-1028
aught	-1029
reeze	-1030
▁Come	-1031
▁Well	-1032
▁burn	-1033
▁case	-1034
▁coll	-1035
▁each	-1036
▁hard	-1037
▁hund	-1038
▁kitc	-1039
▁leaf	-1040
▁live	-1041
▁lost	-1042
▁mark	-1043
▁mist	-1044
▁shad	-1045
▁shan	-1046
▁shut	-1047
▁sing	-1048
▁stop	-1049
▁After	-1050
▁along	-1051
▁apple	-1052
▁chair	-1053
▁drive	-1054
▁fight	-1055
▁fruit	-1056
▁grave	-1057
▁shout	-1058
▁stone	-1059
▁table	-1060
▁takes	-1061
▁times	-1062
▁while	-1063
▁words	-1064
▁answer	-1065
▁called	-1066
▁common	-1067
▁doctor	-1068
▁father	-1069
▁fellow	-1070
▁fields	-1071
▁flower	-1072
▁having	-1073
▁matter	-1074
▁really	-1075
▁seeing	-1076
▁Because	-1077
▁berries	-1078
▁hundred	-1079
▁kitchen	-1080
▁learned	-1081
▁looking	-1082
▁suppose	-1083
▁standing	-1084
If	-1085
Th	-1086
be	-1087
cr	-1088
dy	-1089
em	-1090
ud	-1091
up	-1092
ale	-1093
bed	-1094
ces	-1095
cks	-1096
ead	-1097
elt	-1098
ene	-1099
gth	-1100
ilt	-1101
imp	-1102
mor	-1103
nds	-1104
ord	-1105
ots	-1106
ott	-1107
▁Mr	-1108
▁ap	-1109
▁ce	-1110
▁gi	-1111
ance	-1112
ange	-1113
aven	-1114
ents	-1115
iffe	-1116
ions	-1117
like	-1118
lled	-1119
oren	-1120
pect	-1121
ying	-1122
▁Any	-1123
▁God	-1124
▁Her	-1125
▁Ram	-1126
▁Sli	-1127
▁arm	-1128
▁cre	-1129
▁dry	-1130
▁fur	-1131
▁gre	-1132
▁hid	-1133
▁hum	-1134
▁hur	-1135
▁sum	-1136
▁try	-1137
Where	-1138
round	-1139
umber	-1140
▁Horn	-1141
▁Till	-1142
▁bare	-1143
▁bark	-1144
▁dust	-1145
▁fair	-1146
▁gave	-1147
▁hadn	-1148
▁high	-1149
▁lady	-1150
▁lake	-1151
▁meet	-1152
▁open	-1153
▁pull	-1154
▁rain	-1155
▁read	-1156
▁sign	-1157
▁view	-1158
▁vill	-1159
▁whis	-1160
itting	-1161
▁Loren	-1162
▁belie	-1163
▁bough	-1164
▁break	-1165
▁breat	-1166
▁build	-1167
▁built	-1168
▁doors	-1169
▁guess	-1170
▁knows	-1171
▁laugh	-1172
▁lived	-1173
▁quest	-1174
▁river	-1175
▁sight	-1176
▁start	-1177
▁stick	-1178
▁tired	-1179
▁train	-1180
▁worth	-1181
▁wrong	-1182
▁Doctor	-1183
▁Though	-1184
▁Warren	-1185
▁Willis	-1186
▁breeze	-1187
▁broken	-1188
▁buried	-1189
▁inside	-1190
▁rather	-1191
▁return	-1192
▁silver	-1193
▁sounds	-1194
▁stairs	-1195
▁brought	-1196
▁perhaps	-1197
▁shouldn	-1198
▁trouble	-1199
▁climbing	-1200
▁straight	-1201
▁Sometimes	-1202
▁somewhere	-1203
My	-1204
Sh	-1205
af	-1206
bl	-1207
cl	-1208
ls	-1209
ny	-1210
oz	-1211
ph	-1212
pl	-1213
po	-1214
One	-1215
Who	-1216
act	-1217
ait	-1218
ash	-1219
avy	-1220
com	-1221
eal	-1222
ief	-1223
ipe	-1224
lew	-1225
oes	-1226
oom	-1227
ors	-1228
ple	-1229
pty	-1230
raw	-1231
▁Ac	-1232
▁Up	-1233
▁di	-1234
▁jo	-1235
Good	-1236
When	-1237
arce	-1238
cept	-1239
iced	-1240
ides	-1241
itch	-1242
king	-1243
leph	-1244
llow	-1245
ones	-1246
oney	-1247
outh	-1248
ozen	-1249
rent	-1250
resh	-1251
ythe	-1252
▁Bet	-1253
▁Did	-1254
▁Har	-1255
▁Joe	-1256
▁Too	-1257
▁Two	-1258
▁bar	-1259
▁dep	-1260
▁dew	-1261
▁dim	-1262
▁ear	-1263
▁eas	-1264
▁fam	-1265
▁fun	-1266
▁gir	-1267
▁mid	-1268
▁mom	-1269
▁reg	-1270
▁ris	-1271
▁shr	-1272
▁tou	-1273
apped	-1274
aster	-1275
asure	-1276
ating	-1277
ature	-1278
ished	-1279
ister	-1280
nless	-1281
▁Fred	-1282
▁Look	-1283
▁This	-1284
▁arms	-1285
▁bear	-1286
▁book	-1287
▁coat	-1288
▁cons	-1289
▁doll	-1290
▁drag	-1291
▁fear	-1292
▁foot	-1293
▁hope	-1294
▁land	-1295
▁lose	-1296
▁lots	-1297
▁loud	-1298
▁neck	-1299
▁nest	-1300
▁orch	-1301
▁plan	-1302
▁poor	-1303
▁pret	-1304
▁reme	-1305
▁sell	-1306
▁sink	-1307
▁stir	-1308
▁used	-1309
▁weed	-1310
▁wore	-1311
hether	-1312
inging	-1313
ousand	-1314
▁Every	-1315
▁Until	-1316
▁clear	-1317
▁dared	-1318
▁diffe	-1319
▁empty	-1320
▁folks	-1321
▁fresh	-1322
▁frost	-1323
▁heavy	-1324
▁hills	-1325
▁keeps	-1326
▁least	-1327
▁meals	-1328
▁neigh	-1329
▁reach	-1330
▁sorry	-1331
▁store	-1332
▁storm	-1333
▁talks	-1334
▁until	-1335
▁wheel	-1336
▁Harold	-1337
▁butter	-1338
▁caught	-1339
▁flight	-1340
▁frozen	-1341
▁giving	-1342
▁heaven	-1343
▁likely	-1344
▁moment	-1345
▁reason	-1346
▁scarce	-1347
▁scared	-1348
▁scythe	-1349
▁teleph	-1350
▁trying	-1351
▁walked	-1352
▁within	-1353
▁yellow	-1354
▁Thought	-1355
▁believe	-1356
▁sitting	-1357
▁talking	-1358
▁village	-1359
▁children	-1360
▁fourteen	-1361
▁remember	-1362
▁shoulder	-1363
▁thinking	-1364
▁thousand	-1365
▁ourselves	-1366
?'	-1367
aw	-1368
by	-1369
ip	-1370
iz	-1371
lo	-1372
my	-1373
sp	-1374
ug	-1375
wh	-1376
yl	-1377
zz	-1378
Let	-1379
Not	-1380
She	-1381
add	-1382
aim	-1383
alf	-1384
aut	-1385
bod	-1386
cri	-1387
els	-1388
erk	-1389
fly	-1390
fus	-1391
ger	-1392
how	-1393
ich	-1394
iff	-1395
ize	-1396
kes	-1397
len	-1398
nce	-1399
ner	-1400
oll	-1401
ond	-1402
oof	-1403
oon	-1404
rew	-1405
ued	-1406
unk	-1407
uth	-1408
yle	-1409
▁Bl	-1410
▁Br	-1411
▁Go	-1412
▁Le	-1413
▁ed	-1414
▁ho	-1415
▁ox	-1416
▁pu	-1417
▁ra	-1418
▁ye	-1419
Come	-1420
Hell	-1421
That	-1422
This	-1423
adow	-1424
ages	-1425
ains	-1426
aken	-1427
alls	-1428
aves	-1429
bble	-1430
body	-1431
bout	-1432
cked	-1433
fect	-1434
fess	-1435
full	-1436
ious	-1437
iter	-1438
ixed	-1439
leep	-1440
rest	-1441
room	-1442
step	-1443
▁Are	-1444
▁Com	-1445
▁Hor	-1446
▁May	-1447
▁Mrs	-1448
▁New	-1449
▁Now	-1450
▁Our	-1451
▁aff	-1452
▁ago	-1453
▁cer	-1454
▁che	-1455
▁exc	-1456
▁fet	-1457
▁hat	-1458
▁hot	-1459
▁hus	-1460
▁low	-1461
▁mar	-1462
▁nar	-1463
▁par	-1464
▁pen	-1465
▁pet	-1466
▁pie	-1467
▁spi	-1468
▁squ	-1469
▁ter	-1470
▁vis	-1471
Hello	-1472
anced	-1473
chuck	-1474
dding	-1475
ering	-1476
fully	-1477
illow	-1478
iness	-1479
inger	-1480
lling	-1481
ocked	-1482
orses	-1483
stead	-1484
▁Have	-1485
▁Hell	-1486
▁Just	-1487
▁Lady	-1488
▁Love	-1489
▁Over	-1490
▁Were	-1491
▁aren	-1492
▁bank	-1493
▁bell	-1494
▁bend	-1495
▁body	-1496
▁boys	-1497
▁clot	-1498
▁cows	-1499
▁dawn	-1500
▁drew	-1501
▁fern	-1502
▁fill	-1503
▁fore	-1504
▁form	-1505
▁full	-1506
▁girl	-1507
▁grow	-1508
▁hole	-1509
▁hung	-1510
▁hurt	-1511
▁legs	-1512
▁loss	-1513
▁move	-1514
▁part	-1515
▁pine	-1516
▁pres	-1517
▁safe	-1518
▁sake	-1519
▁save	-1520
▁seiz	-1521
▁size	-1522
▁tall	-1523
▁toss	-1524
▁true	-1525
▁ways	-1526
▁worn	-1527
aining	-1528
morrow	-1529
ressed	-1530
tering	-1531
▁Never	-1532
▁Right	-1533
▁Their	-1534
▁Under	-1535
▁Which	-1536
▁apart	-1537
▁bould	-1538
▁clerk	-1539
▁cloud	-1540
▁drift	-1541
▁early	-1542
▁ended	-1543
▁floor	-1544
▁glass	-1545
▁human	-1546
▁looks	-1547
▁needn	-1548
▁noise	-1549
▁quite	-1550
▁shoes	-1551
▁shook	-1552
▁slept	-1553
▁slope	-1554
▁smell	-1555
▁smoke	-1556
▁spoke	-1557
▁sunny	-1558
▁throw	-1559
▁touch	-1560
▁trave	-1561
▁tried	-1562
▁upper	-1563
▁watch	-1564
▁women	-1565
▁worse	-1566
▁worst	-1567
▁yours	-1568
berries	-1569
▁Beside	-1570
▁Should	-1571
▁asleep	-1572
▁boughs	-1573
▁breast	-1574
▁chairs	-1575
▁chance	-1576
▁change	-1577
▁fallen	-1578
▁family	-1579
▁farmer	-1580
▁follow	-1581
▁forget	-1582
▁haying	-1583
▁horses	-1584
▁making	-1585
▁market	-1586
▁meadow	-1587
▁moving	-1588
▁narrow	-1589
▁number	-1590
▁orchid	-1591
▁pillow	-1592
▁pretty	-1593
▁rested	-1594
▁shadow	-1595
▁showed	-1596
▁smooth	-1597
▁stayed	-1598
▁thrust	-1599
▁useful	-1600
▁Perhaps	-1601
▁Slipper	-1602
▁ceiling	-1603
▁certain	-1604
▁changed	-1605
▁climbed	-1606
▁country	-1607
▁curtain	-1608
▁further	-1609
▁keeping	-1610
▁passing	-1611
▁strange	-1612
▁whether	-1613
▁Anything	-1614
▁backward	-1615
▁business	-1616
▁listened	-1617
▁question	-1618
▁Something	-1619
▁butterfly	-1620
▁different	-1621
▁neighbour	-1622
▁sometimes	-1623
▁woodchuck	-1624
▁Everything	-1625
▁themselves	-1626
..	-1627
As	-1628
So	-1629
bd	-1630
cc	-1631
co	-1632
tw	-1633
.'"	-1634
All	-1635
Did	-1636
God	-1637
afe	-1638
aid	-1639
ane	-1640
aps	-1641
ced	-1642
cha	-1643
cum	-1644
ect	-1645
eek	-1646
ery	-1647
eth	-1648
ets	-1649
for	-1650
ier	-1651
iet	-1652
ime	-1653
ins	-1654
irt	-1655
ixt	-1656
med	-1657
ney	-1658
not	-1659
nto	-1660
ocr	-1661
olt	-1662
ont	-1663
oot	-1664
ory	-1665
oss	-1666
pes	-1667
rge	-1668
rop	-1669
sum	-1670
sur	-1671
ten	-1672
ual	-1673
udd	-1674
ump	-1675
urp	-1676
use	-1677
vil	-1678
▁Ch	-1679
▁Re	-1680
▁Sp	-1681
▁Su	-1682
▁aw	-1683
▁ca	-1684
▁gh	-1685
▁pa	-1686
▁ru	-1687
Fred	-1688
Just	-1689
Then	-1690
They	-1691
Will	-1692
amed	-1693
anks	-1694
ased	-1695
bbed	-1696
fort	-1697
gain	-1698
ging	-1699
hold	-1700
idea	-1701
ined	-1702
land	-1703
mind	-1704
nded	-1705
oles	-1706
oods	-1707
pany	-1708
pipe	-1709
rows	-1710
stor	-1711
ters	-1712
time	-1713
tled	-1714
ular	-1715
unks	-1716
weet	-1717
well	-1718
yard	-1719
ylum	-1720
yond	-1721
▁Ask	-1722
▁Cle	-1723
▁Get	-1724
▁Isn	-1725
▁Jun	-1726
▁Say	-1727
▁See	-1728
▁Yet	-1729
▁act	-1730
▁add	-1731
▁bab	-1732
▁cra	-1733
▁cup	-1734
▁den	-1735
▁eat	-1736
▁ele	-1737
▁ere	-1738
▁fin	-1739
▁ice	-1740
▁imp	-1741
▁jew	-1742
▁log	-1743
▁met	-1744
▁mus	-1745
▁pap	-1746
▁pau	-1747
▁sch	-1748
▁ser	-1749
▁ste	-1750
▁und	-1751
▁wis	-1752
adder	-1753
ading	-1754
ained	-1755
aming	-1756
arden	-1757
arled	-1758
ation	-1759
attle	-1760
bdued	-1761
doors	-1762
ellar	-1763
ences	-1764
erest	-1765
erson	-1766
hings	-1767
lease	-1768
lings	-1769
ocrat	-1770
pered	-1771
ready	-1772
retch	-1773
rough	-1774
spect	-1775
twixt	-1776
umped	-1777
▁Call	-1778
▁Five	-1779
▁Give	-1780
▁Half	-1781
▁Lett	-1782
▁Make	-1783
▁Mort	-1784
▁Much	-1785
▁News	-1786
▁Once	-1787
▁Only	-1788
▁Such	-1789
▁Tell	-1790
▁Wait	-1791
▁Your	-1792
▁ages	-1793
▁bars	-1794
▁bene	-1795
▁bent	-1796
▁blue	-1797
▁bott	-1798
▁bran	-1799
▁brim	-1800
▁city	-1801
▁deep	-1802
▁depe	-1803
▁died	-1804
▁dish	-1805
▁dist	-1806
▁drop	-1807
▁earn	-1808
▁fail	-1809
▁fart	-1810
▁feed	-1811
▁fell	-1812
▁felt	-1813
▁fing	-1814
▁firm	-1815
▁flew	-1816
▁folk	-1817
▁fork	-1818
▁free	-1819
▁gent	-1820
▁gray	-1821
▁grey	-1822
▁hasn	-1823
▁heat	-1824
▁hold	-1825
▁idea	-1826
▁knee	-1827
▁laid	-1828
▁leap	-1829
▁lone	-1830
▁luck	-1831
▁mine	-1832
▁miss	-1833
▁most	-1834
▁noon	-1835
▁nose	-1836
▁pair	-1837
▁pane	-1838
▁path	-1839
▁real	-1840
▁repe	-1841
▁risk	-1842
▁roof	-1843
▁sand	-1844
▁seed	-1845
▁seek	-1846
▁sees	-1847
▁shed	-1848
▁soft	-1849
▁song	-1850
▁star	-1851
▁stri	-1852
▁tail	-1853
▁tong	-1854
▁wear	-1855
▁west	-1856
Warren	-1857
esides	-1858
ground	-1859
icking	-1860
rength	-1861
stairs	-1862
▁About	-1863
▁Bring	-1864
▁Heart	-1865
▁Helen	-1866
▁Hello	-1867
▁Still	-1868
▁Think	-1869
▁Those	-1870
▁Three	-1871
▁Whose	-1872
▁beast	-1873
▁beaut	-1874
▁birch	-1875
▁blame	-1876
▁blown	-1877
▁bound	-1878
▁bread	-1879
▁carry	-1880
▁claim	-1881
▁clean	-1882
▁colle	-1883
▁creat	-1884
▁crust	-1885
▁death	-1886
▁dress	-1887
▁drink	-1888
▁faded	-1889
▁farms	-1890
▁fetch	-1891
▁flung	-1892
▁fools	-1893
▁forth	-1894
▁forty	-1895
▁ghost	-1896
▁gloom	-1897
▁grows	-1898
▁knoll	-1899
▁later	-1900
▁liked	-1901
▁lines	-1902
▁means	-1903
▁money	-1904
▁mouth	-1905
▁names	-1906
▁nests	-1907
▁overt	-1908
▁peach	-1909
▁piece	-1910
▁prove	-1911
▁raise	-1912
▁ready	-1913
▁refus	-1914
▁reply	-1915
▁scene	-1916
▁shade	-1917
▁sheet	-1918
▁stall	-1919
▁stock	-1920
▁stuff	-1921
▁style	-1922
▁swamp	-1923
▁taken	-1924
▁teach	-1925
▁thank	-1926
▁trick	-1927
▁troub	-1928
▁walls	-1929
▁waste	-1930
▁weary	-1931
▁weeds	-1932
▁whole	-1933
▁wings	-1934
▁woman	-1935
▁works	-1936
umbling	-1937
▁Across	-1938
▁Behind	-1939
▁Broken	-1940
▁Lorens	-1941
▁Unless	-1942
▁advant	-1943
▁anyway	-1944
▁apples	-1945
▁breath	-1946
▁bright	-1947
▁double	-1948
▁except	-1949
▁excuse	-1950
▁expect	-1951
▁garden	-1952
▁gather	-1953
▁grapes	-1954
▁hiding	-1955
▁itself	-1956
▁ladder	-1957
▁lifted	-1958
▁living	-1959
▁longer	-1960
▁mowing	-1961
▁nearly	-1962
▁papers	-1963
▁passed	-1964
▁paused	-1965
▁person	-1966
▁picked	-1967
▁polite	-1968
▁rattle	-1969
▁slowly	-1970
▁spider	-1971
▁spiked	-1972
▁spread	-1973
▁strang	-1974
▁sudden	-1975
▁summer	-1976
▁threat	-1977
▁trunks	-1978
▁whiter	-1979
▁wither	-1980
▁worked	-1981
▁Between	-1982
▁Mortens	-1983
▁Nothing	-1984
▁Someone	-1985
▁Whether	-1986
▁already	-1987
▁beneath	-1988
▁birches	-1989
▁burning	-1990
▁clothes	-1991
▁collars	-1992
▁comfort	-1993
▁company	-1994
▁dollars	-1995
▁dropped	-1996
▁farther	-1997
▁finding	-1998
▁fingers	-1999
▁foolish	-2000
▁forward	-2001
▁friends	-2002
▁herself	-2003
▁highway	-2004
▁knowing	-2005
▁leaving	-2006
▁lifting	-2007
▁lightly	-2008
▁measure	-2009
▁noticed	-2010
▁outside	-2011
▁passage	-2012
▁picking	-2013
▁pointed	-2014
▁rattled	-2015
▁settled	-2016
▁snapped	-2017
▁snarled	-2018
▁spoiled	-2019
▁started	-2020
▁subdued	-2021
▁turning	-2022
Something	-2023
hattering	-2024
▁anywhere	-2025
▁boulders	-2026
▁branches	-2027
▁carrying	-2028
▁creature	-2029
▁dreaming	-2030
▁everyone	-2031
▁fountain	-2032
▁happened	-2033
▁interest	-2034
▁outdoors	-2035
▁returned	-2036
▁strength	-2037
▁swinging	-2038
▁watching	-2039
▁whatever	-2040
▁Somewhere	-2041
▁afterward	-2042
▁stovepipe	-2043
▁straining	-2044
▁telephone	-2045
▁whispered	-2046
▁neighbours	-2047
!'	-2048
Be	-2049
Br	-2050
Of	-2051
Or	-2052
Tw	-2053
ax	-2054
bs	-2055
do	-2056
ey	-2057
gl	-2058
os	-2059
ru	-2060
uc	-2061
xt	-2062
Can	-2063
Hel	-2064
Out	-2065
Two	-2066
ags	-2067
ann	-2068
app	-2069
arm	-2070
ask	-2071
aul	-2072
bac	-2073
bin	-2074
bit	-2075
bow	-2076
bra	-2077
bur	-2078
bwe	-2079
bye	-2080
cei	-2081
cid	-2082
cto	-2083
dly	-2084
een	-2085
eer	-2086
erp	-2087
ety	-2088
fer	-2089
fol	-2090
ges	-2091
gin	-2092
gum	-2093
ian	-2094
icy	-2095
ils	-2096
iol	-2097
irc	-2098
isc	-2099
lit	-2100
lls	-2101
mit	-2102
nel	-2103
nut	-2104
oul	-2105
oun	-2106
owe	-2107
pit	-2108
reg	-2109
ron	-2110
sts	-2111
twe	-2112
ubl	-2113
ues	-2114
uly	-2115
umn	-2116
ums	-2117
unt	-2118
urd	-2119
urf	-2120
urs	-2121
ute	-2122
vid	-2123
zel	-2124
zes	-2125
▁Ah	-2126
▁Al	-2127
▁Am	-2128
▁En	-2129
▁Fl	-2130
▁Me	-2131
▁Ne	-2132
▁Sa	-2133
▁ax	-2134
▁oh	-2135
▁pi	-2136
▁sy	-2137
▁ve	-2138
Five	-2139
Help	-2140
Home	-2141
Lafe	-2142
Once	-2143
Wait	-2144
aces	-2145
aged	-2146
airb	-2147
aked	-2148
aled	-2149
alse	-2150
amps	-2151
ares	-2152
aris	-2153
aten	-2154
ates	-2155
atin	-2156
ayed	-2157
burg	-2158
ccup	-2159
cent	-2160
cess	-2161
come	-2162
cons	-2163
drew	-2164
edar	-2165
ense	-2166
epar	-2167
fash	-2168
ffed	-2169
folk	-2170
foot	-2171
fter	-2172
ghed	-2173
hill	-2174
ille	-2175
ills	-2176
immy	-2177
irst	-2178
ited	-2179
ithe	-2180
lder	-2181
ldom	-2182
llen	-2183
lted	-2184
ment	-2185
mont	-2186
ntly	-2187
ocks	-2188
oked	-2189
olen	-2190
omes	-2191
oost	-2192
orse	-2193
orth	-2194
pane	-2195
reed	-2196
ried	-2197
rist	-2198
roat	-2199
roke	-2200
ship	-2201
ucky	-2202
udge	-2203
unen	-2204
ured	-2205
vage	-2206
wood	-2207
zzle	-2208
▁App	-2209
▁Bur	-2210
▁Car	-2211
▁Cor	-2212
▁Had	-2213
▁Its	-2214
▁Mag	-2215
▁Man	-2216
▁Mar	-2217
▁Nor	-2218
▁Off	-2219
▁Pur	-2220
▁Put	-2221
▁Sha	-2222
▁Sit	-2223
▁Tow	-2224
▁age	-2225
▁ain	-2226
▁aut	-2227
▁bag	-2228
▁bal	-2229
▁ban	-2230
▁bay	-2231
▁bin	-2232
▁bru	-2233
▁buy	-2234
▁cow	-2235
▁cry	-2236
▁dem	-2237
▁det	-2238
▁die	-2239
▁din	-2240
▁dog	-2241
▁dug	-2242
▁ent	-2243
▁exp	-2244
▁few	-2245
▁fle	-2246
▁flo	-2247
▁fly	-2248
▁fut	-2249
▁gay	-2250
▁gro	-2251
▁gum	-2252
▁hit	-2253
▁hop	-2254
▁ill	-2255
▁lar	-2256
▁led	-2257
▁leg	-2258
▁len	-2259
▁lit	-2260
▁loo	-2261
▁med	-2262
▁min	-2263
▁mir	-2264
▁nin	-2265
▁oil	-2266
▁ord	-2267
▁pra	-2268
▁ras	-2269
▁rat	-2270
▁rev	-2271
▁rot	-2272
▁row	-2273
▁sad	-2274
▁sin	-2275
▁six	-2276
▁sli	-2277
▁sto	-2278
▁tip	-2279
▁tro	-2280
▁tun	-2281
▁unc	-2282
▁wag	-2283
▁wet	-2284
▁wra	-2285
Shout	-2286
Silas	-2287
actly	-2288
ances	-2289
asant	-2290
ashed	-2291
ately	-2292
bacco	-2293
chief	-2294
clock	-2295
cross	-2296
ction	-2297
eekly	-2298
eered	-2299
eless	-2300
eness	-2301
erpet	-2302
essed	-2303
ester	-2304
ffect	-2305
field	-2306
hamed	-2307
herry	-2308
icken	-2309
ified	-2310
ifted	-2311
ilson	-2312
imney	-2313
isten	-2314
ities	-2315
ition	-2316
itten	-2317
ively	-2318
nders	-2319
nding	-2320
nings	-2321
ocket	-2322
oodsv	-2323
orted	-2324
ossom	-2325
oston	-2326
ouldn	-2327
ounds	-2328
oured	-2329
pared	-2330
plain	-2331
posed	-2332
ppery	-2333
pping	-2334
quare	-2335
quire	-2336
range	-2337
rence	-2338
spire	-2339
stone	-2340
tered	-2341
twere	-2342
ulous	-2343
under	-2344
veral	-2345
vised	-2346
wered	-2347
white	-2348
▁Door	-2349
▁Drag	-2350
▁Drop	-2351
▁Even	-2352
▁Ever	-2353
▁Find	-2354
▁Fore	-2355
▁Hold	-2356
▁Into	-2357
▁June	-2358
▁Long	-2359
▁Mary	-2360
▁Melt	-2361
▁Must	-2362
▁Octo	-2363
▁Stra	-2364
▁Upon	-2365
▁afar	-2366
▁aver	-2367
▁baby	-2368
▁bean	-2369
▁beds	-2370
▁belt	-2371
▁bisc	-2372
▁blew	-2373
▁bore	-2374
▁bund	-2375
▁buzz	-2376
▁cart	-2377
▁cent	-2378
▁char	-2379
▁chew	-2380
▁chin	-2381
▁clom	-2382
▁clut	-2383
▁coax	-2384
▁conv	-2385
▁cott	-2386
▁deaf	-2387
▁deny	-2388
▁dies	-2389
▁dign	-2390
▁draw	-2391
▁dull	-2392
▁dumb	-2393
▁ears	-2394
▁easy	-2395
▁edge	-2396
▁evid	-2397
▁fact	-2398
▁fanc	-2399
▁fate	-2400
▁fist	-2401
▁forg	-2402
▁game	-2403
▁gaps	-2404
▁gets	-2405
▁gift	-2406
▁goad	-2407
▁gold	-2408
▁hair	-2409
▁heed	-2410
▁hick	-2411
▁hide	-2412
▁hook	-2413
▁lack	-2414
▁lawn	-2415
▁lead	-2416
▁lies	-2417
▁lips	-2418
▁loaf	-2419
▁lock	-2420
▁midd	-2421
▁mild	-2422
▁mile	-2423
▁news	-2424
▁next	-2425
▁none	-2426
▁ours	-2427
▁owns	-2428
▁oxen	-2429
▁pail	-2430
▁parl	-2431
▁pear	-2432
▁pile	-2433
▁pipe	-2434
▁pitc	-2435
▁pity	-2436
▁poss	-2437
▁purp	-2438
▁rack	-2439
▁rake	-2440
▁rent	-2441
▁ride	-2442
▁ripe	-2443
▁runs	-2444
▁sank	-2445
▁saws	-2446
▁scra	-2447
▁sear	-2448
▁seat	-2449
▁send	-2450
▁sent	-2451
▁shel	-2452
▁simp	-2453
▁skin	-2454
▁slid	-2455
▁slim	-2456
▁soil	-2457
▁soul	-2458
▁stre	-2459
▁sway	-2460
▁tarn	-2461
▁tast	-2462
▁thus	-2463
▁tick	-2464
▁viol	-2465
▁wash	-2466
▁whom	-2467
▁wide	-2468
▁wing	-2469
▁wire	-2470
▁wise	-2471
Unless	-2472
Willis	-2473
ancing	-2474
atched	-2475
atches	-2476
charge	-2477
coming	-2478
eeping	-2479
ermont	-2480
fessor	-2481
icular	-2482
illing	-2483
inkled	-2484
inting	-2485
ooking	-2486
ording	-2487
pering	-2488
rossed	-2489
storms	-2490
string	-2491
summer	-2492
terday	-2493
though	-2494
uddled	-2495
unting	-2496
velled	-2497
verged	-2498
▁Avery	-2499
▁Brown	-2500
▁Clear	-2501
▁Coles	-2502
▁Doing	-2503
▁Fairb	-2504
▁First	-2505
▁James	-2506
▁Jimmy	-2507
▁Latin	-2508
▁Lunen	-2509
▁Since	-2510
▁Sorry	-2511
▁Stood	-2512
▁Stuck	-2513
▁While	-2514
▁Would	-2515
▁accom	-2516
▁agree	-2517
▁alder	-2518
▁among	-2519
▁apron	-2520
▁argum	-2521
▁awake	-2522
▁barre	-2523
▁blade	-2524
▁bloom	-2525
▁board	-2526
▁bowed	-2527
▁breed	-2528
▁broke	-2529
▁brown	-2530
▁calls	-2531
▁cares	-2532
▁catch	-2533
▁cedar	-2534
▁chill	-2535
▁cider	-2536
▁cliff	-2537
▁clock	-2538
▁close	-2539
▁cobwe	-2540
▁cocks	-2541
▁conce	-2542
▁creep	-2543
▁crump	-2544
▁ditch	-2545
▁docum	-2546
▁drunk	-2547
▁dusty	-2548
▁eaves	-2549
▁eight	-2550
▁embra	-2551
▁faces	-2552
▁false	-2553
▁ferns	-2554
▁fixed	-2555
▁flame	-2556
▁flour	-2557
▁frame	-2558
▁front	-2559
▁grace	-2560
▁green	-2561
▁grief	-2562
▁grist	-2563
▁grown	-2564
▁happy	-2565
▁heads	-2566
▁hence	-2567
▁hired	-2568
▁hotel	-2569
▁hurry	-2570
▁inner	-2571
▁inter	-2572
▁knife	-2573
▁known	-2574
▁lamps	-2575
▁latch	-2576
▁likes	-2577
▁maybe	-2578
▁memor	-2579
▁minds	-2580
▁mixed	-2581
▁mound	-2582
▁needs	-2583
▁north	-2584
▁often	-2585
▁older	-2586
▁pains	-2587
▁paper	-2588
▁piled	-2589
▁pitch	-2590
▁plant	-2591
▁poles	-2592
▁press	-2593
▁pride	-2594
▁quiet	-2595
▁roads	-2596
▁rooms	-2597
▁rough	-2598
▁saved	-2599
▁scare	-2600
▁scent	-2601
▁sends	-2602
▁shack	-2603
▁shaft	-2604
▁shape	-2605
▁share	-2606
▁sheer	-2607
▁shirt	-2608
▁short	-2609
▁smile	-2610
▁spade	-2611
▁spell	-2612
▁split	-2613
▁stars	-2614
▁steal	-2615
▁steam	-2616
▁steps	-2617
▁stiff	-2618
▁story	-2619
▁sweet	-2620
▁swift	-2621
▁swung	-2622
▁teeth	-2623
▁trust	-2624
▁truth	-2625
▁turns	-2626
▁twice	-2627
▁visit	-2628
▁weren	-2629
▁winds	-2630
▁withe	-2631
▁wound	-2632
▁yield	-2633
Whether	-2634
arently	-2635
eparate	-2636
fashion	-2637
morning	-2638
picking	-2639
pointed	-2640
retched	-2641
ristian	-2642
urdered	-2643
welling	-2644
▁Around	-2645
▁Better	-2646
▁Boston	-2647
▁Coming	-2648
▁Corbin	-2649
▁Listen	-2650
▁Looked	-2651
▁Making	-2652
▁Mister	-2653
▁Purple	-2654
▁Sounds	-2655
▁Sudden	-2656
▁Things	-2657
▁Thinks	-2658
▁Toward	-2659
▁Trying	-2660
▁Weekly	-2661
▁Wilson	-2662
▁Woodsv	-2663
▁Yellow	-2664
▁advice	-2665
▁advise	-2666
▁afford	-2667
▁agreed	-2668
▁appear	-2669
▁asylum	-2670
▁autumn	-2671
▁barren	-2672
▁battle	-2673
▁begins	-2674
▁beyond	-2675
▁bitten	-2676
▁bottle	-2677
▁brooks	-2678
▁burned	-2679
▁bushes	-2680
▁cellar	-2681
▁cherry	-2682
▁consci	-2683
▁crying	-2684
▁cursed	-2685
▁danced	-2686
▁descri	-2687
▁dipped	-2688
▁dishes	-2689
▁dollar	-2690
▁driven	-2691
▁either	-2692
▁failed	-2693
▁feared	-2694
▁fences	-2695
▁fought	-2696
▁frames	-2697
▁fright	-2698
▁gently	-2699
▁happen	-2700
▁headed	-2701
▁hungry	-2702
▁hushed	-2703
▁incons	-2704
▁jewels	-2705
▁labour	-2706
▁latter	-2707
▁length	-2708
▁letter	-2709
▁lonely	-2710
▁missed	-2711
▁mocked	-2712
▁ninety	-2713
▁notion	-2714
▁others	-2715
▁perpet	-2716
▁petals	-2717
▁piling	-2718
▁plates	-2719
▁praise	-2720
▁prefer	-2721
▁proper	-2722
▁regret	-2723
▁remind	-2724
▁repeat	-2725
▁repose	-2726
▁rolled	-2727
▁savage	-2728
▁school	-2729
▁seized	-2730
▁seldom	-2731
▁shower	-2732
▁shrink	-2733
▁singer	-2734
▁single	-2735
▁sister	-2736
▁smiled	-2737
▁snatch	-2738
▁softer	-2739
▁softly	-2740
▁sought	-2741
▁sticks	-2742
▁stolen	-2743
▁stones	-2744
▁strong	-2745
▁supper	-2746
▁taking	-2747
▁talked	-2748
▁theirs	-2749
▁thrift	-2750
▁throat	-2751
▁tongue	-2752
▁tossed	-2753
▁tunnel	-2754
▁unless	-2755
▁vision	-2756
▁waited	-2757
▁wander	-2758
▁warmth	-2759
▁waters	-2760
ancaster	-2761
▁Another	-2762
▁Brother	-2763
▁Forever	-2764
▁Neither	-2765
▁October	-2766
▁Sanders	-2767
▁Somehow	-2768
▁Through	-2769
▁Waiting	-2770
▁Without	-2771
▁ashamed	-2772
▁bargain	-2773
▁besides	-2774
▁biscuit	-2775
▁blossom	-2776
▁bruised	-2777
▁bulling	-2778
▁chamber	-2779
▁chimney	-2780
▁college	-2781
▁confess	-2782
▁crossed	-2783
▁depends	-2784
▁dignity	-2785
▁dragged	-2786
▁exactly	-2787
▁falling	-2788
▁farmers	-2789
▁feather	-2790
▁forkful	-2791
▁hickory	-2792
▁inspire	-2793
▁instead	-2794
▁knocked	-2795
▁laughed	-2796
▁lighted	-2797
▁managed	-2798
▁mistake	-2799
▁nodding	-2800
▁nowhere	-2801
▁offence	-2802
▁outward	-2803
▁pitcher	-2804
▁printed	-2805
▁purpose	-2806
▁refused	-2807
▁running	-2808
▁selling	-2809
▁several	-2810
▁shifted	-2811
▁shouted	-2812
▁somehow	-2813
▁staying	-2814
▁stopped	-2815
▁stretch	-2816
▁strings	-2817
▁stubble	-2818
▁suspect	-2819
▁swinger	-2820
▁telling	-2821
▁tobacco	-2822
▁walling	-2823
▁willing	-2824
▁windows	-2825
▁working	-2826
▁wrapper	-2827
▁Straight	-2828
▁answered	-2829
▁clomping	-2830
▁consider	-2831
▁darkened	-2832
▁darkness	-2833
▁democrat	-2834
▁distance	-2835
▁diverged	-2836
▁evidence	-2837
▁feelings	-2838
▁friendly	-2839
▁mischief	-2840
▁personal	-2841
▁pleasant	-2842
▁presents	-2843
▁rattling	-2844
▁rumbling	-2845
▁scarcely	-2846
▁scraping	-2847
▁sleeping	-2848
▁slippery	-2849
▁speaking	-2850
▁starting	-2851
▁stripped	-2852
▁township	-2853
▁treading	-2854
▁troubled	-2855
▁upstairs	-2856
▁withdrew	-2857
▁withered	-2858
▁Fairbanks	-2859
▁Lunenburg	-2860
▁Mortenson	-2861
▁advantage	-2862
▁beginning	-2863
▁breathing	-2864
▁documents	-2865
▁everybody	-2866
▁following	-2867
▁listening	-2868
▁perpetual	-2869
▁questions	-2870
▁withering	-2871
▁yesterday	-2872
▁Woodsville	-2873
▁beginnings	-2874
▁particular	-2875
▁whispering	-2876
▁strangeness	-2877
▁underground	-2878
▁understanding	-2879
Any	-2880
aze	-2881
bey	-2882
ems	-2883
eys	-2884
fac	-2885
ggs	-2886
jud	-2887
lud	-2888
oci	-2889
rup	-2890
toe	-2891
uff	-2892
yla	-2893
Dead	-2894
Does	-2895
Mary	-2896
Pale	-2897
Poss	-2898
Rank	-2899
Its	-2900
abs	-2901
Hold	-2902
Soft	-2903
Twas	-2904
Warm	-2905
ably	-2906
alaw	-2907
alem	-2908
aped	-2909
aple	-2910
aunt	-2911
bank	-2912
blue	-2913
bord	-2914
bors	-2915
ccur	-2916
clud	-2917
coal	-2918
crib	-2919
crif	-2920
crim	-2921
deep	-2922
dily	-2923
dyed	-2924
ecei	-2925
elts	-2926
emim	-2927
ethy	-2928
ette	-2929
ffer	-2930
fork	-2931
iews	-2932
iper	-2933
irts	-2934
ivil	-2935
ject	-2936
lier	-2937
load	-2938
loss	-2939
noon	-2940
nous	-2941
nuts	-2942
osed	-2943
peci	-2944
pedi	-2945
poss	-2946
rawl	-2947
ruce	-2948
ruel	-2949
ruth	-2950
soci	-2951
sper	-2952
tons	-2953
uary	-2954
uiet	-2955
uile	-2956
umsy	-2957
urpr	-2958
vous	-2959
waul	-2960
wels	-2961
wful	-2962
whis	-2963
▁Acc	-2964
▁Amy	-2965
▁Law	-2966
▁Rec	-2967
▁Yan	-2968
▁Yes	-2969
▁awh	-2970
▁axe	-2971
▁bac	-2972
▁cab	-2973
▁cap	-2974
▁fix	-2975
▁jaw	-2976
▁joy	-2977
▁pos	-2978
▁qui	-2979
▁rav	-2980
▁rip	-2981
▁unl	-2982
▁unp	-2983
▁vex	-2984
About	-2985
Asked	-2986
Awful	-2987
Brown	-2988
Elves	-2989
Never	-2990
Watch	-2991
Weren	-2992
Whose	-2993
abbit	-2994
absur	-2995
ached	-2996
acher	-2997
adful	-2998
agoon	-2999
lod	-3000
ode	-3001
pod	-3002
▁Ed	-3003
▁Er	-3004
Fine	-3005
acle	-3006
asks	-3007
eeks	-3008
grow	-3009
line	-3010
olks	-3011
ombs	-3012
ools	-3013
▁Ess	-3014
▁fog	-3015
▁tem	-3016
aided	-3017
alnut	-3018
alues	-3019
amped	-3020
anned	-3021
apple	-3022
aries	-3023
asped	-3024
begin	-3025
bject	-3026
blade	-3027
claim	-3028
cript	-3029
crust	-3030
cumst	-3031
eally	-3032
edged	-3033
ensit	-3034
epubl	-3035
faced	-3036
falls	-3037
fined	-3038
glers	-3039
glory	-3040
grows	-3041
guile	-3042
hazel	-3043
hroom	-3044
icles	-3045
idesp	-3046
idges	-3047
ience	-3048
iends	-3049
igned	-3050
inced	-3051
ircle	-3052
lcome	-3053
lined	-3054
lodge	-3055
mured	-3056
nlike	-3057
oaded	-3058
occup	-3059
odate	-3060
olled	-3061
ommon	-3062
ontre	-3063
ooped	-3064
ority	-3065
orrow	-3066
ouses	-3067
plish	-3068
quets	-3069
races	-3070
raded	-3071
reens	-3072
rging	-3073
rowed	-3074
sills	-3075
spose	-3076
stery	-3077
storm	-3078
surre	-3079
tired	-3080
tters	-3081
udged	-3082
uiled	-3083
ulped	-3084
umple	-3085
unday	-3086
unted	-3087
upper	-3088
urbed	-3089
ushed	-3090
water	-3091
woods	-3092
▁Amid	-3093
▁Blue	-3094
▁Clem	-3095
▁Deer	-3096
▁Draw	-3097
▁Ends	-3098
▁Help	-3099
ius	-3100
ned	-3101
saw	-3102
ush	-3103
usk	-3104
▁Ho	-3105
atis	-3106
dded	-3107
dder	-3108
fend	-3109
nise	-3110
urdy	-3111
▁bew	-3112
▁fus	-3113
▁lad	-3114
▁rid	-3115
▁swo	-3116
▁ung	-3117
adise	-3118
ensic	-3119
gnise	-3120
irius	-3121
nging	-3122
omise	-3123
takes	-3124
▁Hear	-3125
▁Hyla	-3126
▁July	-3127
▁Ladd	-3128
▁Leap	-3129
▁Loud	-3130
▁Lowe	-3131
▁Mayn	-3132
▁Most	-3133
▁Paid	-3134
▁Poor	-3135
▁Real	-3136
▁Said	-3137
▁Says	-3138
▁Slow	-3139
▁Stay	-3140
▁Stem	-3141
▁Stri	-3142
▁Taut	-3143
▁airs	-3144
▁amid	-3145
▁army	-3146
▁auth	-3147
▁axis	-3148
▁bask	-3149
▁bogs	-3150
▁bury	-3151
▁calf	-3152
▁camp	-3153
▁cape	-3154
▁capt	-3155
▁cars	-3156
▁chos	-3157
▁circ	-3158
▁coff	-3159
▁colt	-3160
▁cord	-3161
▁coun	-3162
▁crop	-3163
▁cruc	-3164
▁daft	-3165
▁dash	-3166
▁dire	-3167
▁disc	-3168
▁disg	-3169
▁diso	-3170
▁dogs	-3171
▁dump	-3172
▁dusk	-3173
▁edit	-3174
▁eggs	-3175
▁emer	-3176
▁ends	-3177
▁evil	-3178
▁exha	-3179
▁flav	-3180
▁foli	-3181
▁gale	-3182
▁harp	-3183
▁heap	-3184
▁hidd	-3185
▁hoed	-3186
▁hott	-3187
▁husk	-3188
▁jars	-3189
▁joys	-3190
▁jumb	-3191
▁lane	-3192
▁mail	-3193
▁mask	-3194
▁milk	-3195
▁mull	-3196
▁nigh	-3197
▁nine	-3198
▁numb	-3199
Gu	-3200
Amy	-3201
ece	-3202
eez	-3203
leb	-3204
lem	-3205
ora	-3206
uet	-3207
▁er	-3208
▁id	-3209
athe	-3210
eled	-3211
high	-3212
imon	-3213
lebr	-3214
lemn	-3215
otor	-3216
seen	-3217
stre	-3218
▁Dem	-3219
▁aid	-3220
▁bee	-3221
▁fry	-3222
▁hie	-3223
▁inv	-3224
Guess	-3225
aches	-3226
alley	-3227
allid	-3228
arger	-3229
eezed	-3230
ernal	-3231
ivels	-3232
▁Dece	-3233
▁Luck	-3234
▁Made	-3235
▁Them	-3236
▁agit	-3237
▁bull	-3238
▁corn	-3239
▁crow	-3240
▁ease	-3241
▁erra	-3242
▁fogg	-3243
▁hate	-3244
▁idle	-3245
▁kins	-3246
▁nurs	-3247
▁peep	-3248
▁piqu	-3249
▁plod	-3250
▁poin	-3251
▁prin	-3252
▁prof	-3253
▁prom	-3254
▁prop	-3255
▁prov	-3256
▁publ	-3257
▁puff	-3258
▁purs	-3259
▁rasp	-3260
▁refe	-3261
▁rule	-3262
▁rung	-3263
▁runt	-3264
▁russ	-3265
▁sash	-3266
▁serv	-3267
▁sets	-3268
▁sigh	-3269
▁sits	-3270
▁skim	-3271
▁soci	-3272
▁sque	-3273
▁stan	-3274
▁stub	-3275
▁stud	-3276
▁stup	-3277
▁tags	-3278
▁tuck	-3279
▁turf	-3280
▁twel	-3281
▁twig	-3282
▁unlo	-3283
▁unto	-3284
▁vent	-3285
▁warr	-3286
▁week	-3287
▁wrig	-3288
Common	-3289
Goodby	-3290
Magoon	-3291
Supper	-3292
Though	-3293
alloon	-3294
amping	-3295
annies	-3296
anuary	-3297
appear	-3298
arched	-3299
'?	-3300
Had	-3301
Say	-3302
bon	-3303
fay	-3304
lid	-3305
▁Ta	-3306
Hear	-3307
Such	-3308
bony	-3309
ells	-3310
itic	-3311
lose	-3312
that	-3313
▁eve	-3314
▁fay	-3315
▁gad	-3316
▁oft	-3317
▁pow	-3318
▁tan	-3319
ayfay	-3320
bells	-3321
cters	-3322
forth	-3323
ghter	-3324
ifled	-3325
itics	-3326
oning	-3327
outhw	-3328
▁Back	-3329
▁Came	-3330
▁Part	-3331
▁Taft	-3332
▁band	-3333
▁crev	-3334
▁furn	-3335
▁rave	-3336
▁rock	-3337
▁roll	-3338
▁team	-3339
▁terr	-3340
Before	-3341
athise	-3342
ations	-3343
atures	-3344
avated	-3345
broken	-3346
cended	-3347
cented	-3348
ciding	-3349
ckless	-3350
clares	-3351
crimin	-3352
ctimon	-3353
elping	-3354
escrib	-3355
especi	-3356
estead	-3357
fernal	-3358
fusion	-3359
growth	-3360
heated	-3361
iature	-3362
ifling	-3363
ifteen	-3364
irteen	-3365
irting	-3366
isions	-3367
isited	-3368
istles	-3369
iteral	-3370
ivered	-3371
keness	-3372
larger	-3373
length	-3374
llenly	-3375
modate	-3376
mulous	-3377
nified	-3378
ningly	-3379
ognise	-3380
olably	-3381
oosted	-3382
othold	-3383
oughby	-3384
ourney	-3385
outing	-3386
owsing	-3387
peated	-3388
pedium	-3389
pening	-3390
qually	-3391
reland	-3392
rewdly	-3393
romise	-3394
roughs	-3395
sively	-3396
spread	-3397
stance	-3398
stones	-3399
'?"	-3400
Ten	-3401
Was	-3402
Wom	-3403
iry	-3404
ops	-3405
ork	-3406
otg	-3407
ths	-3408
▁Ap	-3409
Bout	-3410
nons	-3411
vere	-3412
work	-3413
▁Bow	-3414
▁Mor	-3415
▁Pre	-3416
▁bor	-3417
▁dar	-3418
▁icy	-3419
▁rig	-3420
▁rod	-3421
Sakes	-3422
Women	-3423
aying	-3424
ilted	-3425
ishes	-3426
iwork	-3427
otgun	-3428
▁Fren	-3429
▁Morg	-3430
▁Past	-3431
▁Rowe	-3432
▁diam	-3433
▁reed	-3434
▁rode	-3435
▁wiry	-3436
erable	-3437
holden	-3438
laying	-3439
overed	-3440
strewn	-3441
suming	-3442
tstone	-3443
uckles	-3444
udders	-3445
unches	-3446
uniper	-3447
unless	-3448
urched	-3449
urring	-3450
vereag	-3451
whiske	-3452
▁Added	-3453
▁Again	-3454
▁Apart	-3455
▁Bless	-3456
▁Blown	-3457
▁Burst	-3458
▁Carry	-3459
▁Earth	-3460
▁Flick	-3461
▁Frant	-3462
▁Gaunt	-3463
▁Haven	-3464
▁Jemim	-3465
▁Least	-3466
▁Leave	-3467
▁Marne	-3468
▁Maybe	-3469
▁Money	-3470
▁Mount	-3471
▁Naked	-3472
▁Named	-3473
▁Often	-3474
▁Salem	-3475
▁Short	-3476
▁Shout	-3477
▁Slave	-3478
▁Stick	-3479
▁Stops	-3480
▁Style	-3481
▁Truth	-3482
▁Walls	-3483
▁Watch	-3484
▁Worse	-3485
▁Yours	-3486
▁abode	-3487
▁accid	-3488
▁acted	-3489
▁added	-3490
▁armed	-3491
▁babes	-3492
▁bacon	-3493
▁balls	-3494
▁banks	-3495
▁bared	-3496
▁barit	-3497
▁beans	-3498
▁becom	-3499
Ch	-3500
yp	-3501
▁?	-3502
Now	-3503
ays	-3504
ede	-3505
eed	-3506
gry	-3507
iss	-3508
low	-3509
tis	-3510
aith	-3511
aned	-3512
cken	-3513
head	-3514
ises	-3515
ller	-3516
lude	-3517
orch	-3518
what	-3519
ypre	-3520
▁lap	-3521
▁mad	-3522
▁sne	-3523
▁wed	-3524
adays	-3525
aning	-3526
ining	-3527
latch	-3528
ounts	-3529
paris	-3530
swell	-3531
▁Down	-3532
▁Seed	-3533
▁bang	-3534
▁cann	-3535
▁lain	-3536
▁loun	-3537
▁pict	-3538
▁ties	-3539
▁tire	-3540
racken	-3541
▁Cater	-3542
▁Close	-3543
▁Cypre	-3544
▁Light	-3545
▁Seems	-3546
▁Weiss	-3547
▁aglow	-3548
▁angry	-3549
▁began	-3550
▁begun	-3551
▁belad	-3552
▁birth	-3553
▁blank	-3554
▁blush	-3555
▁bombs	-3556
▁books	-3557
▁brief	-3558
▁brute	-3559
▁burns	-3560
▁burnt	-3561
▁caver	-3562
▁cease	-3563
▁charm	-3564
▁chest	-3565
▁chose	-3566
▁civil	-3567
▁compl	-3568
▁costs	-3569
▁crack	-3570
▁crash	-3571
▁crept	-3572
▁cried	-3573
▁crows	-3574
▁crumb	-3575
▁curse	-3576
▁daunt	-3577
▁deplo	-3578
▁deser	-3579
▁desol	-3580
▁devil	-3581
▁dimin	-3582
▁disag	-3583
▁dough	-3584
▁drops	-3585
▁drove	-3586
▁dying	-3587
▁earsh	-3588
▁ebony	-3589
▁elbow	-3590
▁elect	-3591
▁erect	-3592
▁exist	-3593
▁fails	-3594
▁faith	-3595
▁famil	-3596
▁fancy	-3597
▁fares	-3598
▁feels	-3599
Al	-3600
To	-3601
lk	-3602
vy	-3603
Put	-3604
cho	-3605
ien	-3606
sin	-3607
som	-3608
▁Ha	-3609
▁av	-3610
▁gn	-3611
chan	-3612
char	-3613
ingy	-3614
mand	-3615
▁Run	-3616
▁bou	-3617
▁dic	-3618
▁lot	-3619
▁rub	-3620
Possi	-3621
atten	-3622
chant	-3623
chard	-3624
heard	-3625
icine	-3626
steps	-3627
sters	-3628
usted	-3629
▁aval	-3630
▁brid	-3631
▁bris	-3632
▁bulk	-3633
▁fain	-3634
▁hast	-3635
▁jolt	-3636
▁mien	-3637
▁nail	-3638
▁outc	-3639
▁pour	-3640
▁rout	-3641
▁spee	-3642
▁wavy	-3643
▁weak	-3644
Always	-3645
Possib	-3646
ceiver	-3647
ethyst	-3648
vature	-3649
▁Lucky	-3650
▁Ready	-3651
▁bosom	-3652
▁brawl	-3653
▁brisk	-3654
▁clung	-3655
▁dingy	-3656
▁downy	-3657
▁ename	-3658
▁fence	-3659
▁fists	-3660
▁flank	-3661
▁fleck	-3662
▁flora	-3663
▁foggy	-3664
▁force	-3665
▁fours	-3666
▁gains	-3667
▁gives	-3668
▁greet	-3669
▁grope	-3670
▁guard	-3671
▁guest	-3672
▁habit	-3673
▁haste	-3674
▁hates	-3675
▁hayse	-3676
▁hazes	-3677
▁heaps	-3678
▁heels	-3679
▁hoary	-3680
▁homes	-3681
▁hoped	-3682
▁horse	-3683
▁husky	-3684
▁illim	-3685
▁jewel	-3686
▁judge	-3687
▁kinds	-3688
▁leads	-3689
▁legal	-3690
▁lifts	-3691
▁lower	-3692
▁lying	-3693
▁maple	-3694
▁match	-3695
▁medit	-3696
▁mirth	-3697
▁motor	-3698
▁moves	-3699
Is	-3700
St	-3701
bu	-3702
fl	-3703
of	-3704
oh	-3705
rp	-3706
to	-3707
col	-3708
onc	-3709
▁Ca	-3710
▁Ou	-3711
Show	-3712
Stay	-3713
ault	-3714
cred	-3715
ieks	-3716
mper	-3717
pose	-3718
reck	-3719
▁Ben	-3720
▁Old	-3721
▁Try	-3722
▁hun	-3723
▁mon	-3724
▁pri	-3725
build	-3726
flame	-3727
iment	-3728
irreg	-3729
kward	-3730
money	-3731
ueful	-3732
▁Caly	-3733
▁Ming	-3734
▁Turn	-3735
▁alto	-3736
▁drum	-3737
▁east	-3738
▁gain	-3739
▁loth	-3740
▁muff	-3741
▁oven	-3742
▁prun	-3743
▁stro	-3744
▁thin	-3745
ustion	-3746
▁Diffe	-3747
▁Imper	-3748
▁Ought	-3749
▁State	-3750
▁Sweet	-3751
▁backs	-3752
▁fault	-3753
▁foref	-3754
▁irreg	-3755
▁month	-3756
▁mower	-3757
▁mulle	-3758
▁music	-3759
▁pelts	-3760
▁petal	-3761
▁pines	-3762
▁pious	-3763
▁poems	-3764
▁point	-3765
▁poise	-3766
▁poorh	-3767
▁porch	-3768
▁pours	-3769
▁prest	-3770
▁price	-3771
▁prong	-3772
▁proof	-3773
▁proud	-3774
▁queer	-3775
▁ravel	-3776
▁reedy	-3777
▁reins	-3778
▁resin	-3779
▁revol	-3780
▁rigid	-3781
▁rings	-3782
▁ripen	-3783
▁rises	-3784
▁satis	-3785
▁score	-3786
▁scurf	-3787
▁sense	-3788
▁sharp	-3789
▁shine	-3790
▁shoot	-3791
▁shrun	-3792
▁sides	-3793
▁signs	-3794
▁sings	-3795
▁sinus	-3796
▁sixty	-3797
▁slate	-3798
▁slows	-3799
By	-3800
In	-3801
da	-3802
jo	-3803
Dis	-3804
Our	-3805
amn	-3806
iar	-3807
joy	-3808
riv	-3809
see	-3810
you	-3811
▁Si	-3812
Damn	-3813
Four	-3814
ankl	-3815
bred	-3816
seek	-3817
▁ant	-3818
▁del	-3819
▁ind	-3820
▁nat	-3821
▁ner	-3822
Cross	-3823
anite	-3824
etite	-3825
nered	-3826
views	-3827
▁Near	-3828
▁Pine	-3829
▁Priv	-3830
▁ache	-3831
▁bums	-3832
▁harm	-3833
▁kite	-3834
▁soda	-3835
▁soot	-3836
anklin	-3837
▁Blade	-3838
▁Night	-3839
▁alive	-3840
▁enjoy	-3841
▁grind	-3842
▁natur	-3843
▁regin	-3844
▁snake	-3845
▁solid	-3846
▁spect	-3847
▁speed	-3848
▁spunk	-3849
▁stale	-3850
▁starf	-3851
▁straw	-3852
▁stray	-3853
▁strug	-3854
▁stubb	-3855
▁stuck	-3856
▁stumb	-3857
▁sucks	-3858
▁surpr	-3859
▁swale	-3860
▁swarm	-3861
▁sweep	-3862
▁swish	-3863
▁tasks	-3864
▁taste	-3865
▁tease	-3866
▁terms	-3867
▁thumb	-3868
▁towns	-3869
▁trace	-3870
▁track	-3871
▁trail	-3872
▁trunk	-3873
▁twang	-3874
▁twent	-3875
▁udder	-3876
▁uncut	-3877
▁undid	-3878
▁unnot	-3879
▁vexes	-3880
▁vines	-3881
▁wages	-3882
▁wagon	-3883
▁waist	-3884
▁walks	-3885
▁waves	-3886
▁weeks	-3887
▁whine	-3888
▁whisp	-3889
▁wider	-3890
▁wiser	-3891
▁wreck	-3892
Brother	-3893
Looking	-3894
Shouldn	-3895
Twouldn	-3896
Whither	-3897
advised	-3898
akening	-3899
ye	-3900
For	-3901
Ile	-3902
cay	-3903
eds	-3904
end	-3905
gle	-3906
hel	-3907
▁Sw	-3908
▁ah	-3909
▁et	-3910
▁tu	-3911
Were	-3912
ener	-3913
jour	-3914
kind	-3915
weed	-3916
▁Far	-3917
▁cun	-3918
▁hoe	-3919
▁hom	-3920
▁spr	-3921
▁tug	-3922
ceeds	-3923
etard	-3924
journ	-3925
urely	-3926
▁food	-3927
▁gaze	-3928
▁kill	-3929
▁laun	-3930
▁limp	-3931
▁ling	-3932
▁meas	-3933
▁mill	-3934
▁poet	-3935
▁pool	-3936
▁tuft	-3937
cceeds	-3938
eneral	-3939
omeone	-3940
rowing	-3941
▁Bathe	-3942
▁Blind	-3943
▁Folks	-3944
▁Swing	-3945
▁cryst	-3946
▁decay	-3947
▁ether	-3948
▁fears	-3949
▁hazel	-3950
▁mustn	-3951
▁overc	-3952
▁pages	-3953
▁retra	-3954
▁roost	-3955
▁schol	-3956
▁speci	-3957
▁syrup	-3958
▁truly	-3959
Perhaps	-3960
Someone	-3961
alawags	-3962
alities	-3963
anching	-3964
arising	-3965
astness	-3966
atience	-3967
attered	-3968
aylight	-3969
cepting	-3970
choking	-3971
cluding	-3972
crifice	-3973
earless	-3974
eceived	-3975
ensical	-3976
epublic	-3977
fection	-3978
holders	-3979
icicles	-3980
ildered	-3981
ilfully	-3982
ircumst	-3983
iseless	-3984
judiced	-3985
lighted	-3986
llenged	-3987
mefully	-3988
natched	-3989
ndition	-3990
olesale	-3991
ometime	-3992
onciled	-3993
onesome	-3994
onsense	-3995
ontreal	-3996
ornered	-3997
ortance	-3998
ovember	-3999
End	-4000
ept	-4001
fis	-4002
ran	-4003
cing	-4004
cour	-4005
kees	-4006
kles	-4007
ster	-4008
▁Cut	-4009
▁dun	-4010
▁fit	-4011
▁ine	-4012
agger	-4013
andle	-4014
iture	-4015
omace	-4016
▁Cran	-4017
▁Rack	-4018
▁abre	-4019
▁educ	-4020
▁gage	-4021
▁root	-4022
▁slam	-4023
▁tear	-4024
▁tink	-4025
▁wake	-4026
Dumped	-4027
asting	-4028
▁Cruel	-4029
▁aster	-4030
▁burst	-4031
▁click	-4032
▁enter	-4033
▁regul	-4034
ccurred	-4035
courage	-4036
fishing	-4037
hunting	-4038
peaking	-4039
racters	-4040
rawling	-4041
respect	-4042
scented	-4043
sperous	-4044
stellar	-4045
surance	-4046
surrect	-4047
terpane	-4048
theless	-4049
urmured	-4050
ustered	-4051
▁Afraid	-4052
▁Always	-4053
▁Asylum	-4054
▁Averys	-4055
▁Beyond	-4056
▁Carved	-4057
▁Choked	-4058
▁Combed	-4059
▁Dragon	-4060
▁Either	-4061
▁Faster	-4062
▁French	-4063
▁Gulped	-4064
▁Hearts	-4065
▁Incred	-4066
▁Jemima	-4067
▁Lately	-4068
▁Lawyer	-4069
▁Layfay	-4070
▁Leaped	-4071
▁Locked	-4072
▁Magoon	-4073
▁Master	-4074
▁Morgan	-4075
▁Myself	-4076
▁Nature	-4077
▁Piling	-4078
▁Racker	-4079
▁Raking	-4080
▁Rather	-4081
▁Retard	-4082
▁Rolled	-4083
▁Sirius	-4084
▁Sorrow	-4085
▁Southw	-4086
▁Spring	-4087
▁Square	-4088
▁Sunday	-4089
▁Surely	-4090
▁Thanks	-4091
▁Unlike	-4092
▁access	-4093
▁aching	-4094
▁affair	-4095
▁altern	-4096
▁ankles	-4097
▁appeal	-4098
▁associ	-4099
Ma	-4100
See	-4101
eel	-4102
haw	-4103
irp	-4104
ume	-4105
▁Sc	-4106
Ever	-4107
Gone	-4108
Save	-4109
With	-4110
adee	-4111
back	-4112
cher	-4113
fact	-4114
fast	-4115
irit	-4116
once	-4117
vest	-4118
▁Bro	-4119
▁ell	-4120
▁key	-4121
▁kin	-4122
▁pit	-4123
▁pul	-4124
▁sym	-4125
mouth	-4126
▁Bill	-4127
▁Feel	-4128
▁Here	-4129
▁aged	-4130
▁airy	-4131
▁bind	-4132
▁dome	-4133
▁fine	-4134
▁gang	-4135
▁isle	-4136
▁line	-4137
▁note	-4138
▁rows	-4139
▁summ	-4140
▁suns	-4141
▁symp	-4142
▁tend	-4143
▁thaw	-4144
herish	-4145
illers	-4146
onceal	-4147
▁Broad	-4148
▁arise	-4149
▁cased	-4150
▁chirp	-4151
▁fused	-4152
▁leafy	-4153
▁named	-4154
▁notch	-4155
▁plume	-4156
▁pulse	-4157
▁spare	-4158
▁tents	-4159
▁whate	-4160
▁whips	-4161
filling	-4162
ickadee	-4163
killers	-4164
▁Calyps	-4165
▁Shouts	-4166
▁averse	-4167
▁awhile	-4168
▁banged	-4169
▁banked	-4170
▁barely	-4171
▁barrel	-4172
▁basket	-4173
▁beaten	-4174
▁beauty	-4175
▁become	-4176
▁belitt	-4177
▁bigger	-4178
▁blamed	-4179
▁blocks	-4180
▁boring	-4181
▁bottom	-4182
▁bought	-4183
▁bridge	-4184
▁bullet	-4185
▁bundle	-4186
▁bursts	-4187
▁bushel	-4188
▁buying	-4189
▁cables	-4190
▁candle	-4191
▁cannon	-4192
▁cannot	-4193
▁capped	-4194
▁caring	-4195
▁cattle	-4196
▁celebr	-4197
▁choice	-4198
▁cliffs	-4199
Go	-4200
Won	-4201
ees	-4202
str	-4203
yly	-4204
▁Li	-4205
Make	-4206
Tell	-4207
ball	-4208
fall	-4209
mell	-4210
ores	-4211
ppos	-4212
till	-4213
▁Has	-4214
▁Hur	-4215
▁att	-4216
▁dig	-4217
▁rel	-4218
Lucky	-4219
esses	-4220
herer	-4221
oters	-4222
▁Dark	-4223
▁Wall	-4224
▁cage	-4225
▁doom	-4226
▁gull	-4227
▁jail	-4228
▁peas	-4229
▁pell	-4230
▁rend	-4231
▁sack	-4232
▁yard	-4233
strung	-4234
therer	-4235
▁Could	-4236
▁Hurry	-4237
▁Shyly	-4238
▁attic	-4239
▁bluet	-4240
▁conqu	-4241
▁dishe	-4242
▁elves	-4243
▁knees	-4244
▁large	-4245
▁occup	-4246
▁oppos	-4247
▁outer	-4248
▁rainy	-4249
▁relie	-4250
▁stake	-4251
aseball	-4252
claimed	-4253
▁Darkly	-4254
▁Enough	-4255
▁Living	-4256
▁charge	-4257
▁chores	-4258
▁chosen	-4259
▁clings	-4260
▁closed	-4261
▁clouds	-4262
▁clumsy	-4263
▁cobweb	-4264
▁coffee	-4265
▁collie	-4266
▁convul	-4267
▁corner	-4268
▁cotton	-4269
▁counts	-4270
▁crater	-4271
▁crazes	-4272
▁creeps	-4273
▁crevic	-4274
▁crucif	-4275
▁crumbs	-4276
▁curled	-4277
▁dagger	-4278
▁darker	-4279
▁darkly	-4280
▁dawned	-4281
▁dazzle	-4282
▁dearie	-4283
▁defend	-4284
▁deploy	-4285
▁depths	-4286
▁desire	-4287
▁detest	-4288
▁dicing	-4289
▁dining	-4290
▁dishon	-4291
▁disreg	-4292
▁doffed	-4293
▁drifts	-4294
▁drools	-4295
▁dumped	-4296
▁easier	-4297
▁easily	-4298
▁editor	-4299
cal	-4300
cil	-4301
top	-4302
▁?"	-4303
leaf	-4304
nown	-4305
stem	-4306
▁Den	-4307
▁Mid	-4308
▁elf	-4309
▁fum	-4310
▁job	-4311
Three	-4312
place	-4313
ustle	-4314
▁Away	-4315
▁Publ	-4316
▁Soon	-4317
▁Wide	-4318
▁cock	-4319
▁hers	-4320
▁hush	-4321
▁inch	-4322
▁mown	-4323
▁whim	-4324
▁worm	-4325
ention	-4326
ollect	-4327
▁Begin	-4328
▁blink	-4329
▁boots	-4330
▁eased	-4331
▁entry	-4332
▁flout	-4333
▁hound	-4334
▁loose	-4335
▁mowed	-4336
▁pound	-4337
▁shing	-4338
▁shore	-4339
▁stalk	-4340
▁tough	-4341
▁twist	-4342
andered	-4343
▁Sought	-4344
▁bobbed	-4345
▁earned	-4346
▁enamel	-4347
▁faster	-4348
▁feeble	-4349
▁felled	-4350
▁finish	-4351
▁firmly	-4352
▁fixity	-4353
▁flakes	-4354
▁forest	-4355
▁forgot	-4356
▁forked	-4357
▁former	-4358
▁frayed	-4359
▁freeze	-4360
▁frosty	-4361
▁fumble	-4362
▁futile	-4363
▁future	-4364
▁gained	-4365
▁gentle	-4366
▁gnomes	-4367
▁golden	-4368
▁grassy	-4369
▁gravel	-4370
▁graves	-4371
▁grudge	-4372
▁guests	-4373
▁halted	-4374
▁harrow	-4375
▁height	-4376
▁helped	-4377
▁helper	-4378
▁hermit	-4379
▁hidden	-4380
▁hobble	-4381
▁houses	-4382
▁humble	-4383
▁humped	-4384
▁instep	-4385
▁invite	-4386
▁joined	-4387
▁knocks	-4388
▁larger	-4389
▁lashed	-4390
▁layers	-4391
▁leaned	-4392
▁lesson	-4393
▁liking	-4394
▁listen	-4395
▁loaves	-4396
▁logged	-4397
▁looped	-4398
▁lounge	-4399
Pro	-4400
Try	-4401
....	-4402
burn	-4403
iful	-4404
past	-4405
roll	-4406
▁Adv	-4407
▁Can	-4408
▁Lie	-4409
▁Sum	-4410
▁jag	-4411
▁lum	-4412
▁oak	-4413
▁san	-4414
eaten	-4415
ieves	-4416
▁Bang	-4417
▁Lafe	-4418
▁Went	-4419
▁arch	-4420
▁bolt	-4421
▁bure	-4422
▁fast	-4423
▁flat	-4424
▁flut	-4425
▁glow	-4426
▁keen	-4427
▁mare	-4428
▁mass	-4429
▁mess	-4430
▁nice	-4431
▁spit	-4432
▁tide	-4433
Really	-4434
arding	-4435
burned	-4436
chions	-4437
idable	-4438
itable	-4439
oaming	-4440
should	-4441
▁Other	-4442
▁Spare	-4443
▁bride	-4444
▁given	-4445
▁grant	-4446
▁licks	-4447
▁lumps	-4448
▁offer	-4449
▁possi	-4450
▁power	-4451
▁scorn	-4452
▁spent	-4453
▁sways	-4454
▁terri	-4455
▁threw	-4456
Whoever	-4457
ocketed	-4458
▁Apples	-4459
▁Gather	-4460
▁Ridges	-4461
▁Summer	-4462
▁accept	-4463
▁bodily	-4464
▁bureau	-4465
▁eleven	-4466
▁especi	-4467
▁fatten	-4468
▁lovely	-4469
▁lumber	-4470
▁manage	-4471
▁manner	-4472
▁marble	-4473
▁marked	-4474
▁mellow	-4475
▁melted	-4476
▁memory	-4477
▁merest	-4478
▁middle	-4479
▁minute	-4480
▁mounts	-4481
▁mouths	-4482
▁musing	-4483
▁naught	-4484
▁necess	-4485
▁needed	-4486
▁nester	-4487
▁nobody	-4488
▁object	-4489
▁office	-4490
▁ordeal	-4491
▁orders	-4492
▁outcry	-4493
▁overdo	-4494
▁paired	-4495
▁pallid	-4496
▁parlor	-4497
▁partly	-4498
▁pearls	-4499
fty	-4500
ips	-4501
ager	-4502
ears	-4503
jure	-4504
mare	-4505
ovel	-4506
ures	-4507
▁Got	-4508
▁Ice	-4509
▁Thy	-4510
▁bla	-4511
▁box	-4512
▁tea	-4513
arest	-4514
ciple	-4515
icked	-4516
jurer	-4517
▁Both	-4518
▁Care	-4519
▁Each	-4520
▁Weak	-4521
▁bite	-4522
▁blaz	-4523
▁blow	-4524
▁boss	-4525
▁dare	-4526
▁gate	-4527
▁moss	-4528
▁pace	-4529
▁plow	-4530
▁roar	-4531
▁self	-4532
▁sick	-4533
▁vain	-4534
igures	-4535
▁Later	-4536
▁Years	-4537
▁abide	-4538
▁beech	-4539
▁chips	-4540
▁frown	-4541
▁girls	-4542
▁goods	-4543
▁lives	-4544
▁lofty	-4545
▁loves	-4546
▁pause	-4547
▁prete	-4548
▁slabs	-4549
▁thick	-4550
▁tread	-4551
▁trout	-4552
▁wears	-4553
▁witch	-4554
iderate	-4555
▁Grange	-4556
▁Having	-4557
▁Little	-4558
▁Picked	-4559
▁Please	-4560
▁bother	-4561
▁cobble	-4562
▁effect	-4563
▁gloomy	-4564
▁hither	-4565
▁lately	-4566
▁linger	-4567
▁nights	-4568
▁pencil	-4569
▁pieces	-4570
▁piqued	-4571
▁plants	-4572
▁played	-4573
▁pocket	-4574
▁points	-4575
▁poised	-4576
▁policy	-4577
▁polish	-4578
▁pomace	-4579
▁poured	-4580
▁preach	-4581
▁presto	-4582
▁profit	-4583
▁public	-4584
▁puffed	-4585
▁pushed	-4586
▁puzzle	-4587
▁quiver	-4588
▁rabbit	-4589
▁raised	-4590
▁ranges	-4591
▁rascal	-4592
▁ravine	-4593
▁recede	-4594
▁recite	-4595
▁reeled	-4596
▁region	-4597
▁repair	-4598
▁riding	-4599
'!"	-4600
Hey	-4601
Men	-4602
▁Us	-4603
Love	-4604
cars	-4605
chel	-4606
held	-4607
orts	-4608
urch	-4609
▁hig	-4610
istol	-4611
▁Aren	-4612
▁Been	-4613
▁Fool	-4614
▁Gave	-4615
▁Mind	-4616
▁Save	-4617
▁Soft	-4618
▁Warn	-4619
▁cool	-4620
▁deal	-4621
▁heel	-4622
▁mite	-4623
▁pink	-4624
▁rich	-4625
▁sold	-4626
▁tops	-4627
atedly	-4628
chever	-4629
circle	-4630
fectly	-4631
▁Among	-4632
▁Great	-4633
▁Shall	-4634
▁These	-4635
▁alike	-4636
▁cones	-4637
▁flies	-4638
▁joins	-4639
▁loved	-4640
▁spite	-4641
▁state	-4642
▁trade	-4643
▁whose	-4644
ernight	-4645
weather	-4646
▁Anyway	-4647
▁Father	-4648
▁Loaded	-4649
▁Number	-4650
▁arched	-4651
▁church	-4652
▁cracks	-4653
▁errand	-4654
▁handle	-4655
▁higher	-4656
▁inward	-4657
▁nature	-4658
▁notice	-4659
▁pistol	-4660
▁rights	-4661
▁rising	-4662
▁robbed	-4663
▁rounds	-4664
▁rueful	-4665
▁rumple	-4666
▁runner	-4667
▁russet	-4668
▁rustle	-4669
▁satisf	-4670
▁scored	-4671
▁scorns	-4672
▁scroll	-4673
▁sealed	-4674
▁search	-4675
▁season	-4676
▁seated	-4677
▁seizes	-4678
▁sensit	-4679
▁served	-4680
▁shaken	-4681
▁shakes	-4682
▁shells	-4683
▁shines	-4684
▁shooks	-4685
▁shouts	-4686
▁shovel	-4687
▁sicken	-4688
▁sights	-4689
▁signed	-4690
▁simple	-4691
▁simply	-4692
▁skirts	-4693
▁sleeps	-4694
▁sleigh	-4695
▁slower	-4696
▁smells	-4697
▁sodden	-4698
▁solemn	-4699
nock	-4700
▁pea	-4701
▁tag	-4702
▁Sect	-4703
▁bill	-4704
▁fled	-4705
erness	-4706
▁block	-4707
▁flock	-4708
▁knock	-4709
▁shock	-4710
▁spared	-4711
▁speech	-4712
▁spikes	-4713
▁spills	-4714
▁spines	-4715
▁spirit	-4716
▁sports	-4717
▁spruce	-4718
▁stains	-4719
▁stalks	-4720
▁starts	-4721
▁steady	-4722
▁storms	-4723
▁streak	-4724
▁strict	-4725
▁stride	-4726
▁strove	-4727
▁struck	-4728
▁stupid	-4729
▁sturdy	-4730
▁suffer	-4731
▁summit	-4732
▁sunken	-4733
▁sunset	-4734
▁surely	-4735
▁tanned	-4736
▁tasted	-4737
▁taught	-4738
▁temple	-4739
▁tended	-4740
▁tender	-4741
▁thrall	-4742
▁thread	-4743
▁thrown	-4744
▁ticket	-4745
▁tilted	-4746
▁topped	-4747
▁towels	-4748
▁tracks	-4749
▁travel	-4750
▁tricks	-4751
▁trolls	-4752
▁trough	-4753
▁twelve	-4754
▁twenty	-4755
▁undone	-4756
▁unread	-4757
▁unseen	-4758
▁upland	-4759
▁upside	-4760
▁upward	-4761
▁urging	-4762
▁valley	-4763
▁values	-4764
▁varies	-4765
▁violin	-4766
▁voters	-4767
▁wagged	-4768
▁wallow	-4769
▁walnut	-4770
▁wasted	-4771
▁wended	-4772
▁whited	-4773
▁widesp	-4774
▁wildly	-4775
▁wished	-4776
▁wishes	-4777
▁wonted	-4778
▁wooded	-4779
▁wooden	-4780
▁wretch	-4781
Anything	-4782
Fourteen	-4783
Nonsense	-4784
Possibly	-4785
Shouting	-4786
absurdly	-4787
bordered	-4788
builders	-4789
coloured	-4790
cription	-4791
ffectual	-4792
iousness	-4793
nothings	-4794
occupied	-4795
parisons	-4796
repeated	-4797
starched	-4798
▁Beguile	-4799
▁Besides	-4800
▁Calypso	-4801
▁Cherish	-4802
▁Conceal	-4803
▁Describ	-4804
▁Drawing	-4805
▁Dressed	-4806
▁Enchant	-4807
▁Essence	-4808
▁Finding	-4809
▁Frantic	-4810
▁Friends	-4811
▁Getting	-4812
▁However	-4813
▁Huddled	-4814
▁Instead	-4815
▁Ireland	-4816
▁January	-4817
▁Looking	-4818
▁Luckily	-4819
▁Marched	-4820
▁Meaning	-4821
▁Mingled	-4822
▁Outside	-4823
▁Pasture	-4824
▁Playing	-4825
▁Pressed	-4826
▁Promise	-4827
▁Putting	-4828
▁Release	-4829
▁Rifling	-4830
▁Scatter	-4831
▁Seeking	-4832
▁Sharing	-4833
▁Shelves	-4834
▁Sitting	-4835
▁Slipped	-4836
▁Slumped	-4837
▁Suppose	-4838
▁Warning	-4839
▁Yankees	-4840
▁abreast	-4841
▁acquire	-4842
▁address	-4843
▁affairs	-4844
▁arching	-4845
▁arrange	-4846
▁average	-4847
▁awkward	-4848
▁balance	-4849
▁balloon	-4850
▁banking	-4851
▁barking	-4852
▁barrels	-4853
▁beating	-4854
▁becomes	-4855
▁bedroom	-4856
▁bedtime	-4857
▁bellows	-4858
▁blaming	-4859
▁blazing	-4860
▁blessed	-4861
▁blinked	-4862
▁boarded	-4863
▁boosted	-4864
▁boulder	-4865
▁bracken	-4866
▁breasts	-4867
▁breathe	-4868
▁breeder	-4869
▁brittle	-4870
▁budding	-4871
▁bunches	-4872
▁bundles	-4873
▁burying	-4874
▁buttons	-4875
▁captain	-4876
▁careful	-4877
▁chanced	-4878
▁chances	-4879
▁checked	-4880
▁chewink	-4881
▁clapped	-4882
▁clatter	-4883
▁cleaned	-4884
▁cleaves	-4885
▁clothed	-4886
▁clutter	-4887
▁cobwebs	-4888
▁command	-4889
▁conceit	-4890
▁conquer	-4891
▁cooking	-4892
▁counted	-4893
▁courage	-4894
▁cowered	-4895
▁creased	-4896
▁crusted	-4897
▁crystal	-4898
▁curious	-4899
▁cutting	-4900
▁defined	-4901
▁delight	-4902
▁denying	-4903
▁descent	-4904
▁deserve	-4905
▁desired	-4906
▁devised	-4907
▁diamond	-4908
▁disobey	-4909
▁disposs	-4910
▁doorway	-4911
▁doubted	-4912
▁dreaded	-4913
▁earnest	-4914
▁earshot	-4915
▁earthly	-4916
▁embrace	-4917
▁emerged	-4918
▁entered	-4919
▁equally	-4920
▁explain	-4921
▁exposed	-4922
▁express	-4923
▁fancies	-4924
▁fellows	-4925
▁fetched	-4926
▁fifteen	-4927
▁figures	-4928
▁flavour	-4929
▁flecked	-4930
▁flights	-4931
▁floated	-4932
▁foliage	-4933
▁folkses	-4934
▁fooling	-4935
▁forcing	-4936
▁forever	-4937
▁forgive	-4938
▁gathers	-4939
▁general	-4940
▁granite	-4941
▁grasped	-4942
▁gravely	-4943
▁greatly	-4944
▁groping	-4945
▁growing	-4946
▁gullied	-4947
▁halfway	-4948
▁hanging	-4949
▁happens	-4950
▁harbour	-4951
▁harvest	-4952
▁haunted	-4953
▁hayseed	-4954
▁hearing	-4955
▁hinting	-4956
▁holding	-4957
▁hottest	-4958
▁however	-4959
▁huddled	-4960
▁hunters	-4961
▁icicles	-4962
▁impress	-4963
▁jointed	-4964
▁journey	-4965
▁jumbled	-4966
▁juniper	-4967
▁kindred	-4968
▁leaping	-4969
▁leather	-4970
▁literal	-4971
▁locking	-4972
▁lolling	-4973
▁lowered	-4974
▁lurched	-4975
▁mankind	-4976
▁married	-4977
▁matches	-4978
▁matters	-4979
▁meaning	-4980
▁meeting	-4981
▁mending	-4982
▁mention	-4983
▁message	-4984
▁middles	-4985
▁milking	-4986
▁miracle	-4987
▁mopping	-4988
▁muffled	-4989
▁mullein	-4990
▁mystery	-4991
▁natural	-4992
▁nearest	-4993
▁nervous	-4994
▁numbers	-4995
▁nursery	-4996
▁offside	-4997
▁opening	-4998
▁orchard	-4999
▁orchids	-5000
▁overeag	-5001
▁paraded	-5002
▁parlour	-5003
▁passion	-5004
▁patches	-5005
▁peopled	-5006
▁petered	-5007
▁pickers	-5008
▁picture	-5009
▁pleased	-5010
▁pressed	-5011
▁pretend	-5012
▁propped	-5013
▁pruning	-5014
▁pulleys	-5015
▁pursued	-5016
▁rackful	-5017
▁rations	-5018
▁reached	-5019
▁reading	-5020
▁refusal	-5021
▁release	-5022
▁require	-5023
▁resting	-5024
▁retrace	-5025
▁rightly	-5026
▁ringing	-5027
▁ripened	-5028
▁roaming	-5029
▁rolling	-5030
▁sailing	-5031
▁satchel	-5032
▁scented	-5033
▁scholar	-5034
▁screens	-5035
▁seedpod	-5036
▁seeming	-5037
▁seizing	-5038
▁service	-5039
▁shadowy	-5040
▁shelter	-5041
▁shining	-5042
▁shotgun	-5043
▁showers	-5044
▁showing	-5045
▁shrieks	-5046
▁signals	-5047
▁silence	-5048
▁sincere	-5049
▁singing	-5050
▁skimmed	-5051
▁skinned	-5052
▁slender	-5053
▁smoking	-5054
▁smudged	-5055
▁sneered	-5056
▁snorted	-5057
▁snowing	-5058
▁sojourn	-5059
▁special	-5060
▁spectre	-5061
▁stained	-5062
▁stamped	-5063
▁station	-5064
▁steered	-5065
▁stifled	-5066
▁stirred	-5067
▁stooped	-5068
▁strands	-5069
▁strayed	-5070
▁streets	-5071
▁studied	-5072
▁summers	-5073
▁sweeten	-5074
▁swobbed	-5075
▁tarnish	-5076
▁teacher	-5077
▁thieves	-5078
▁thither	-5079
▁thrifty	-5080
▁thunder	-5081
▁tickles	-5082
▁tongues	-5083
▁tossing	-5084
▁totters	-5085
▁touches	-5086
▁travels	-5087
▁treason	-5088
▁trodden	-5089
▁twisted	-5090
▁unaided	-5091
▁unheard	-5092
▁venture	-5093
▁waiting	-5094
▁walking	-5095
▁warping	-5096
▁warrant	-5097
▁washing	-5098
▁watcher	-5099
▁weather	-5100
▁weeping	-5101
▁welcome	-5102
▁wishing	-5103
▁worsted	-5104
▁wrought	-5105
▁yelping	-5106
Christian	-5107
Discharge	-5108
Lancaster	-5109
Professor	-5110
beginning	-5111
epublican	-5112
fashioned	-5113
plishment	-5114
surrected	-5115
whiskered	-5116
▁Although	-5117
▁Bringing	-5118
▁Clematis	-5119
▁Compared	-5120
▁Daylight	-5121
▁December	-5122
▁Democrat	-5123
▁Dooryard	-5124
▁Dragging	-5125
▁Fearless	-5126
▁Flirting	-5127
▁Franklin	-5128
▁Fumbling	-5129
▁Helpless	-5130
▁Junction	-5131
▁Lighting	-5132
▁Montreal	-5133
▁Mounting	-5134
▁Murdered	-5135
▁November	-5136
▁Separate	-5137
▁Slipping	-5138
▁Snatched	-5139
▁Speaking	-5140
▁Stripped	-5141
▁Suddenly	-5142
▁Thirteen	-5143
▁Whatever	-5144
▁accident	-5145
▁advanced	-5146
▁agitated	-5147
▁although	-5148
▁amethyst	-5149
▁appetite	-5150
▁argument	-5151
▁assuming	-5152
▁balanced	-5153
▁banister	-5154
▁barefoot	-5155
▁baritone	-5156
▁barkless	-5157
▁baseball	-5158
▁beauties	-5159
▁becoming	-5160
▁bedstead	-5161
▁beguiled	-5162
▁beholden	-5163
▁beladied	-5164
▁believed	-5165
▁berrying	-5166
▁blankets	-5167
▁boundary	-5168
▁bouquets	-5169
▁breaking	-5170
▁bristles	-5171
▁building	-5172
▁charcoal	-5173
▁circling	-5174
▁circumst	-5175
▁claiming	-5176
▁clinging	-5177
▁clutches	-5178
▁coasting	-5179
▁commoner	-5180
▁compared	-5181
▁complain	-5182
▁concerns	-5183
▁conjurer	-5184
▁cornered	-5185
▁cottages	-5186
▁crannies	-5187
▁creaking	-5188
▁creeping	-5189
▁crevices	-5190
▁crucifix	-5191
▁crumpled	-5192
▁darlings	-5193
▁daunting	-5194
▁daylight	-5195
▁deciding	-5196
▁declares	-5197
▁describe	-5198
▁deserted	-5199
▁desolate	-5200
▁detained	-5201
▁director	-5202
▁disagree	-5203
▁dislodge	-5204
▁doorstep	-5205
▁dooryard	-5206
▁doubtful	-5207
▁downward	-5208
▁dragging	-5209
▁dreadful	-5210
▁drinking	-5211
▁drowsing	-5212
▁dwelling	-5213
▁eighteen	-5214
▁election	-5215
▁embraced	-5216
▁everyday	-5217
▁expected	-5218
▁familiar	-5219
▁fatherly	-5220
▁feathers	-5221
▁features	-5222
▁fighting	-5223
▁finished	-5224
▁floating	-5225
▁flourish	-5226
▁followed	-5227
▁foothold	-5228
▁forefoot	-5229
▁forkfuls	-5230
▁furrowed	-5231
▁gladness	-5232
▁glancing	-5233
▁gloaming	-5234
▁handling	-5235
▁hayfield	-5236
▁highways	-5237
▁hillside	-5238
▁hopeless	-5239
▁houseful	-5240
▁infernal	-5241
▁inspires	-5242
▁instance	-5243
▁kinsfolk	-5244
▁knuckles	-5245
▁laughter	-5246
▁levelled	-5247
▁likeness	-5248
▁lingered	-5249
▁livelier	-5250
▁lonesome	-5251
▁marching	-5252
▁marrying	-5253
▁measured	-5254
▁medicine	-5255
▁memories	-5256
▁midnight	-5257
▁mistaken	-5258
▁misunder	-5259
▁mornings	-5260
▁murdered	-5261
▁murmured	-5262
▁mushroom	-5263
▁nowadays	-5264
▁occurred	-5265
▁offering	-5266
▁opposing	-5267
▁orchises	-5268
▁outgrows	-5269
▁overalls	-5270
▁overcast	-5271
▁overhead	-5272
▁overtake	-5273
▁overtook	-5274
▁paradise	-5275
▁pathless	-5276
▁planning	-5277
▁pleasure	-5278
▁politely	-5279
▁politics	-5280
▁position	-5281
▁possible	-5282
▁pounding	-5283
▁preaches	-5284
▁presence	-5285
▁pressure	-5286
▁pretence	-5287
▁promised	-5288
▁proposed	-5289
▁provoked	-5290
▁reaching	-5291
▁realised	-5292
▁receiver	-5293
▁reckless	-5294
▁reclined	-5295
▁regulate	-5296
▁relieved	-5297
▁reminded	-5298
▁reported	-5299
▁scouting	-5300
▁seedling	-5301
▁separate	-5302
▁shedding	-5303
▁shivered	-5304
▁shrewdly	-5305
▁shrivels	-5306
▁shrunken	-5307
▁shudders	-5308
▁sidehill	-5309
▁sideways	-5310
▁snatched	-5311
▁sneering	-5312
▁snowline	-5313
▁sociable	-5314
▁somebody	-5315
▁sometime	-5316
▁somewhat	-5317
▁spilling	-5318
▁squashed	-5319
▁squeaked	-5320
▁squeezed	-5321
▁starfish	-5322
▁sticking	-5323
▁stranger	-5324
▁stricken	-5325
▁stronger	-5326
▁struggle	-5327
▁stubborn	-5328
▁stumbles	-5329
▁succeeds	-5330
▁sullenly	-5331
▁sunlight	-5332
▁swarming	-5333
▁sweetest	-5334
▁teaching	-5335
▁terraces	-5336
▁terrible	-5337
▁threaten	-5338
▁throwing	-5339
▁tinkling	-5340
▁tireless	-5341
▁trailing	-5342
▁tramping	-5343
▁treasure	-5344
▁ungraded	-5345
▁unlocked	-5346
▁vastness	-5347
▁villager	-5348
▁violence	-5349
▁wakening	-5350
▁wandered	-5351
▁whenever	-5352
▁whispers	-5353
▁wilfully	-5354
▁windrows	-5355
▁withheld	-5356
▁wreckage	-5357
▁wretched	-5358
▁wrinkled	-5359
▁youngest	-5360
ctimonious	-5361
shouldered	-5362
▁Accepting	-5363
▁According	-5364
▁Advancing	-5365
▁Affection	-5366
▁Burroughs	-5367
▁Caterwaul	-5368
▁Chickadee	-5369
▁Christian	-5370
▁Different	-5371
▁Gathering	-5372
▁Including	-5373
▁Lancaster	-5374
▁Leastways	-5375
▁Magnified	-5376
▁Privately	-5377
▁Published	-5378
▁Recurring	-5379
▁Sprawling	-5380
▁addressed	-5381
▁afternoon	-5382
▁arguments	-5383
▁assurance	-5384
▁authority	-5385
▁backwoods	-5386
▁beautiful	-5387
▁belittled	-5388
▁bettering	-5389
▁blackened	-5390
▁breakfast	-5391
▁brotherly	-5392
▁burrowing	-5393
▁carefully	-5394
▁cavernous	-5395
▁clustered	-5396
▁collector	-5397
▁concealed	-5398
▁condition	-5399
▁confusion	-5400
▁consigned	-5401
▁convinced	-5402
▁creatures	-5403
▁crumpling	-5404
▁cunningly	-5405
▁curvature	-5406
▁darkening	-5407
▁dauntless	-5408
▁deafening	-5409
▁depending	-5410
▁descended	-5411
▁described	-5412
▁disappear	-5413
▁discharge	-5414
▁discrimin	-5415
▁disgusted	-5416
▁dishonest	-5417
▁disturbed	-5418
▁doctoring	-5419
▁doughnuts	-5420
▁driftwood	-5421
▁education	-5422
▁encourage	-5423
▁entertain	-5424
▁excavated	-5425
▁exclaimed	-5426
▁expressed	-5427
▁fireplace	-5428
▁footsteps	-5429
▁furniture	-5430
▁furtherer	-5431
▁gathering	-5432
▁graveyard	-5433
▁handiwork	-5434
▁homestead	-5435
▁household	-5436
▁interlude	-5437
▁irregular	-5438
▁lamplight	-5439
▁launching	-5440
▁miniature	-5441
▁miserable	-5442
▁neighbors	-5443
▁nightmare	-5444
▁noiseless	-5445
▁northward	-5446
▁objection	-5447
▁occupying	-5448
▁outspread	-5449
▁overtired	-5450
▁pitchfork	-5451
▁poorhouse	-5452
▁possesses	-5453
▁principle	-5454
▁professor	-5455
▁reasoning	-5456
▁recognise	-5457
▁recollect	-5458
▁recording	-5459
▁reference	-5460
▁revisited	-5461
▁revolving	-5462
▁sacrifice	-5463
▁satisfied	-5464
▁scalawags	-5465
▁scattered	-5466
▁searching	-5467
▁sentiment	-5468
▁sheltered	-5469
▁shingling	-5470
▁shoulders	-5471
▁shrinking	-5472
▁smokeless	-5473
▁sprinkled	-5474
▁squinting	-5475
▁starlight	-5476
▁stiffness	-5477
▁stretched	-5478
▁surprised	-5479
▁tarnishes	-5480
▁terrified	-5481
▁thriftier	-5482
▁thrusting	-5483
▁travelled	-5484
▁traveller	-5485
▁tremulous	-5486
▁troubling	-5487
▁uncovered	-5488
▁unlighted	-5489
▁unloading	-5490
▁unnoticed	-5491
▁wandering	-5492
▁whetstone	-5493
▁whichever	-5494
▁wholesale	-5495
▁windfalls	-5496
▁worthless	-5497
▁wrigglers	-5498
nonsensical	-5499
▁Apparently	-5500
▁Describing	-5501
▁Everywhere	-5502
▁Flickering	-5503
▁Layfayette	-5504
▁Mortensons	-5505
▁Republican	-5506
▁Shattering	-5507
▁Willoughby	-5508
▁advantages	-5509
▁afterwards	-5510
▁altogether	-5511
▁apparently	-5512
▁associated	-5513
▁ballooning	-5514
▁bewildered	-5515
▁challenged	-5516
▁characters	-5517
▁chattering	-5518
▁comforting	-5519
▁conscience	-5520
▁difference	-5521
▁diminished	-5522
▁downstairs	-5523
▁especially	-5524
▁everywhere	-5525
▁exhaustion	-5526
▁finalities	-5527
▁flourished	-5528
▁fluttering	-5529
▁forefinger	-5530
▁formidable	-5531
▁foursquare	-5532
▁henceforth	-5533
▁impatience	-5534
▁importance	-5535
▁indwelling	-5536
▁meditating	-5537
▁otherwhere	-5538
▁preferring	-5539
▁prejudiced	-5540
▁prosperous	-5541
▁questioned	-5542
▁reconciled	-5543
▁repeatedly	-5544
▁rightfully	-5545
▁shamefully	-5546
▁shattering	-5547
▁springtime	-5548
▁stanchions	-5549
▁stiffening	-5550
▁straighter	-5551
▁sympathise	-5552
▁telephones	-5553
▁tenderness	-5554
▁thousandth	-5555
▁threatened	-5556
▁undeceived	-5557
▁undertakes	-5558
▁unpocketed	-5559
▁widespread	-5560
▁youngsters	-5561
▁Blueberries	-5562
▁Cranberries	-5563
▁Cyprepedium	-5564
▁Imperfectly	-5565
▁Incredulous	-5566
▁Preoccupied	-5567
▁Shouldering	-5568
▁Southwester	-5569
▁accommodate	-5570
▁alternation	-5571
▁appearances	-5572
▁arrangement	-5573
▁avalanching	-5574
▁bewhiskered	-5575
▁blueberries	-5576
▁celebrating	-5577
▁comfortable	-5578
▁comparisons	-5579
▁complaining	-5580
▁consciences	-5581
▁counterpane	-5582
▁countryside	-5583
▁dishevelled	-5584
▁frightening	-5585
▁illimitable	-5586
▁ineffectual	-5587
▁interesting	-5588
▁necessities	-5589
▁raspberries	-5590
▁remembering	-5591
▁resurrected	-5592
▁sensitively	-5593
▁seriousness	-5594
▁telephoning	-5595
▁undergrowth	-5596
▁Nevertheless	-5597
▁convulsively	-5598
▁dispossessed	-5599
▁disregarding	-5600
▁inconsolably	-5601
▁interstellar	-5602
▁prescription	-5603
▁stockholders	-5604
▁circumstances	-5605
▁inconsiderate	-5606
▁misunderstand	-5607
▁overeagerness	-5608
▁sanctimonious	-5609
▁straightening	-5610
▁accomplishment	-5611
▁considerations	-5612
▁discriminating	-5613
Bl	-5614
Dr	-5615
Ic	-5616
Mr	-5617
Ot	-5618
Wi	-5619
cs	-5620
dp	-5621
du	-5622
ky	-5623
lw	-5624
nq	-5625
si	-5626
Ben	-5627
Cat	-5628
Cle	-5629
Den	-5630
Dum	-5631
Foo	-5632
Gat	-5633
Has	-5634
Jim	-5635
Lad	-5636
Mad	-5637
Man	-5638
Old	-5639
Pas	-5640
Rep	-5641
Sil	-5642
Yan	-5643
Yet	-5644
abb	-5645
aby	-5646
acc	-5647
adi	-5648
adv	-5649
ans	-5650
arr	-5651
asc	-5652
asp	-5653
asy	-5654
ati	-5655
cas	-5656
cat	-5657
cav	-5658
cen	-5659
cip	-5660
cky	-5661
cla	-5662
dat	-5663
dle	-5664
dom	-5665
eat	-5666
eet	-5667
ele	-5668
emo	-5669
erv	-5670
etc	-5671
eti	-5672
ett	-5673
far	-5674
ffe	-5675
ghe	-5676
had	-5677
hav	-5678
idl	-5679
imn	-5680
kep	-5681
ket	-5682
lat	-5683
lde	-5684
ldn	-5685
lds	-5686
lee	-5687
lep	-5688
lte	-5689
man	-5690
mat	-5691
mef	-5692
mes	-5693
mth	-5694
ndt	-5695
ngr	-5696
ngu	-5697
nom	-5698
nse	-5699
Ah	-5700
Du	-5701
ba	-5702
ju	-5703
rw	-5704
yb	-5705
Ban	-5706
Eve	-5707
Gon	-5708
Jan	-5709
Lan	-5710
Lay	-5711
Mon	-5712
Non	-5713
anu	-5714
ayl	-5715
ayn	-5716
ban	-5717
beg	-5718
ean	-5719
etw	-5720
ghn	-5721
gon	-5722
hem	-5723
jar	-5724
kel	-5725
kim	-5726
lth	-5727
men	-5728
nst	-5729
oas	-5730
obe	-5731
occ	-5732
oct	-5733
ody	-5734
oet	-5735
oft	-5736
oke	-5737
ona	-5738
onf	-5739
oop	-5740
ote	-5741
ouc	-5742
pad	-5743
pas	-5744
pat	-5745
pon	-5746
rat	-5747
rco	-5748
rib	-5749
rse	-5750
run	-5751
rut	-5752
sel	-5753
shi	-5754
sig	-5755
sle	-5756
stn	-5757
tim	-5758
tit	-5759
too	-5760
ugh	-5761
upy	-5762
uti	-5763
uts	-5764
utt	-5765
utu	-5766
uzz	-5767
vel	-5768
vex	-5769
wau	-5770
wen	-5771
wix	-5772
yon	-5773
yse	-5774
zen	-5775
▁Jo	-5776
▁Ju	-5777
▁Un	-5778
▁Wi	-5779
▁au	-5780
▁ea	-5781
▁eb	-5782
▁eg	-5783
▁ei	-5784
▁ge	-5785
▁im	-5786
▁mu	-5787
▁na	-5788
▁nu	-5789
▁ov	-5790
▁ud	-5791
Lanc	-5792
Shat	-5793
Whit	-5794
abes	-5795
acco	-5796
aced	-5797
ackf	-5798
aise	-5799
ah	-5800
fw	-5801
kf	-5802
na	-5803
sk	-5804
tc	-5805
Far	-5806
Hom	-5807
Lat	-5808
Som	-5809
arb	-5810
arc	-5811
arf	-5812
arp	-5813
asn	-5814
ded	-5815
ege	-5816
enc	-5817
esa	-5818
esp	-5819
fes	-5820
fra	-5821
gar	-5822
idd	-5823
ipp	-5824
lei	-5825
nes	-5826
oar	-5827
omb	-5828
omm	-5829
omy	-5830
par	-5831
pet	-5832
pom	-5833
rch	-5834
rid	-5835
san	-5836
ser	-5837
ses	-5838
tar	-5839
tes	-5840
tom	-5841
urr	-5842
urv	-5843
vem	-5844
vep	-5845
wes	-5846
xes	-5847
yes	-5848
▁Ab	-5849
▁Ad	-5850
▁Ag	-5851
▁Tw	-5852
▁ly	-5853
Give	-5854
alit	-5855
anci	-5856
ancy	-5857
anit	-5858
anke	-5859
aper	-5860
aref	-5861
arsh	-5862
arti	-5863
asan	-5864
ashe	-5865
astu	-5866
atte	-5867
auty	-5868
awag	-5869
aybe	-5870
ayer	-5871
ayet	-5872
bles	-5873
blis	-5874
bted	-5875
chid	-5876
chie	-5877
cien	-5878
circ	-5879
cord	-5880
crat	-5881
ctly	-5882
deal	-5883
dged	-5884
ding	-5885
dles	-5886
dued	-5887
eady	-5888
ease	-5889
eded	-5890
edic	-5891
eems	-5892
eful	-5893
ends	-5894
erns	-5895
erou	-5896
erst	-5897
esce	-5898
esid	-5899
On	-5900
Te	-5901
ai	-5902
Cut	-5903
How	-5904
Low	-5905
Mar	-5906
Nor	-5907
Sak	-5908
Sor	-5909
ckf	-5910
dow	-5911
edt	-5912
eem	-5913
elp	-5914
ena	-5915
enb	-5916
eng	-5917
eta	-5918
gan	-5919
hhe	-5920
hid	-5921
ims	-5922
ira	-5923
irb	-5924
kor	-5925
lor	-5926
lue	-5927
min	-5928
mst	-5929
nar	-5930
nit	-5931
now	-5932
orl	-5933
owl	-5934
rim	-5935
sef	-5936
tha	-5937
uas	-5938
vul	-5939
xen	-5940
▁ga	-5941
▁ma	-5942
▁ou	-5943
▁vo	-5944
arge	-5945
ddre	-5946
eall	-5947
erhe	-5948
erve	-5949
esom	-5950
essa	-5951
etes	-5952
etit	-5953
ewel	-5954
fere	-5955
gged	-5956
ghte	-5957
ghtl	-5958
ghts	-5959
hate	-5960
hatt	-5961
have	-5962
hear	-5963
heat	-5964
herr	-5965
hese	-5966
hile	-5967
hion	-5968
hise	-5969
hook	-5970
host	-5971
iall	-5972
iche	-5973
iden	-5974
iftw	-5975
ighb	-5976
iked	-5977
imen	-5978
inet	-5979
inin	-5980
inus	-5981
inut	-5982
irac	-5983
irep	-5984
irte	-5985
isel	-5986
iske	-5987
itin	-5988
iton	-5989
itor	-5990
ixit	-5991
ixty	-5992
ized	-5993
izes	-5994
kful	-5995
kses	-5996
lden	-5997
lish	-5998
llet	-5999
Av	-6000
Ba	-6001
Sl	-6002
ia	-6003
sl	-6004
Day	-6005
His	-6006
May	-6007
Mid	-6008
Nat	-6009
Ran	-6010
Wat	-6011
Wid	-6012
dis	-6013
eak	-6014
eda	-6015
edl	-6016
edp	-6017
edr	-6018
edu	-6019
edy	-6020
eis	-6021
enj	-6022
epu	-6023
fed	-6024
hir	-6025
his	-6026
isa	-6027
iso	-6028
isp	-6029
isu	-6030
key	-6031
lim	-6032
lis	-6033
lly	-6034
lom	-6035
mis	-6036
oed	-6037
ois	-6038
ony	-6039
pid	-6040
pst	-6041
rad	-6042
seh	-6043
sor	-6044
tat	-6045
urc	-6046
war	-6047
wis	-6048
xed	-6049
xha	-6050
xis	-6051
zed	-6052
▁hi	-6053
▁yi	-6054
Fore	-6055
Luck	-6056
ackw	-6057
adis	-6058
care	-6059
eder	-6060
edit	-6061
eing	-6062
ente	-6063
gree	-6064
inat	-6065
isit	-6066
lean	-6067
llim	-6068
llis	-6069
lory	-6070
lown	-6071
lper	-6072
lust	-6073
mocr	-6074
morn	-6075
ncef	-6076
ndar	-6077
ndle	-6078
ndly	-6079
ndon	-6080
neer	-6081
ngst	-6082
ngue	-6083
nies	-6084
oary	-6085
oast	-6086
obey	-6087
odge	-6088
oget	-6089
oise	-6090
ompl	-6091
oomy	-6092
oorh	-6093
oors	-6094
oory	-6095
opel	-6096
orit	-6097
orld	-6098
orms	-6099
Ab	-6100
Ac	-6101
Aw	-6102
Co	-6103
Da	-6104
Fi	-6105
Ge	-6106
Le	-6107
Oc	-6108
Se	-6109
Up	-6110
br	-6111
dl	-6112
eg	-6113
ez	-6114
fu	-6115
lc	-6116
lr	-6117
pr	-6118
rb	-6119
rv	-6120
uy	-6121
vi	-6122
xc	-6123
ya	-6124
yf	-6125
yw	-6126
Dre	-6127
ads	-6128
alu	-6129
ari	-6130
aro	-6131
cut	-6132
edi	-6133
gen	-6134
gst	-6135
hab	-6136
iat	-6137
ida	-6138
lar	-6139
lea	-6140
lle	-6141
llo	-6142
lun	-6143
mid	-6144
onv	-6145
por	-6146
reo	-6147
sid	-6148
sit	-6149
▁Ar	-6150
▁Av	-6151
▁Tr	-6152
▁ba	-6153
▁cu	-6154
▁du	-6155
died	-6156
fern	-6157
fing	-6158
gret	-6159
hara	-6160
hell	-6161
icic	-6162
iggl	-6163
leas	-6164
leck	-6165
llid	-6166
lout	-6167
mong	-6168
nter	-6169
orst	-6170
ossi	-6171
oter	-6172
oubt	-6173
oura	-6174
ousn	-6175
outd	-6176
outg	-6177
owad	-6178
owar	-6179
owed	-6180
owhe	-6181
owly	-6182
phon	-6183
pick	-6184
pire	-6185
praw	-6186
quin	-6187
rack	-6188
ragg	-6189
rapp	-6190
reau	-6191
reen	-6192
rees	-6193
reet	-6194
rels	-6195
rewd	-6196
ribe	-6197
rift	-6198
rind	-6199
Ad	-6200
An	-6201
Ap	-6202
Bi	-6203
Cl	-6204
Ed	-6205
Gr	-6206
Re	-6207
Ti	-6208
Wa	-6209
Yo	-6210
gn	-6211
gt	-6212
hy	-6213
lt	-6214
nn	-6215
og	-6216
rh	-6217
rm	-6218
rr	-6219
sc	-6220
so	-6221
ui	-6222
vo	-6223
wy	-6224
yo	-6225
yt	-6226
Bes	-6227
Cro	-6228
Des	-6229
Dow	-6230
Eit	-6231
Fas	-6232
Nam	-6233
Ram	-6234
ana	-6235
bid	-6236
cle	-6237
ere	-6238
esi	-6239
ete	-6240
ghs	-6241
ghw	-6242
hey	-6243
hor	-6244
ids	-6245
isg	-6246
kad	-6247
mse	-6248
nis	-6249
onq	-6250
orr	-6251
pre	-6252
rac	-6253
res	-6254
rhe	-6255
roo	-6256
vas	-6257
vot	-6258
wif	-6259
win	-6260
▁Bo	-6261
▁es	-6262
▁fu	-6263
avat	-6264
cter	-6265
ftly	-6266
fuls	-6267
ifte	-6268
otst	-6269
reas	-6270
rodd	-6271
ropp	-6272
roud	-6273
rrow	-6274
rumb	-6275
scri	-6276
sens	-6277
sent	-6278
sery	-6279
sess	-6280
shes	-6281
sign	-6282
sion	-6283
ston	-6284
sued	-6285
surd	-6286
take	-6287
tche	-6288
tful	-6289
tick	-6290
tter	-6291
turn	-6292
ucif	-6293
ucki	-6294
uckl	-6295
usal	-6296
ustn	-6297
vanc	-6298
vant	-6299
Ev	-6300
Ho	-6301
Lo	-6302
Pe	-6303
Wo	-6304
bi	-6305
eo	-6306
gi	-6307
gr	-6308
ma	-6309
rn	-6310
rs	-6311
rt	-6312
sn	-6313
tg	-6314
tl	-6315
tu	-6316
va	-6317
wk	-6318
wl	-6319
...	-6320
Are	-6321
Ear	-6322
Fou	-6323
War	-6324
Wor	-6325
cem	-6326
edn	-6327
etu	-6328
fre	-6329
has	-6330
hei	-6331
hot	-6332
inu	-6333
lec	-6334
nre	-6335
oil	-6336
opp	-6337
owy	-6338
ppl	-6339
rea	-6340
rel	-6341
rok	-6342
sci	-6343
tak	-6344
tch	-6345
ton	-6346
yed	-6347
zle	-6348
▁ev	-6349
▁ol	-6350
Part	-6351
aran	-6352
arit	-6353
arly	-6354
arry	-6355
bweb	-6356
cite	-6357
date	-6358
eber	-6359
etim	-6360
herw	-6361
hone	-6362
inge	-6363
insf	-6364
inst	-6365
oned	-6366
rave	-6367
rein	-6368
rick	-6369
tood	-6370
uman	-6371
vels	-6372
view	-6373
vill	-6374
vine	-6375
vise	-6376
wang	-6377
wyer	-6378
▁Add	-6379
▁Cho	-6380
▁Chr	-6381
▁Col	-6382
▁Cru	-6383
▁Cyp	-6384
▁Dif	-6385
▁Dra	-6386
▁Eit	-6387
▁Eve	-6388
▁Foo	-6389
▁Fre	-6390
▁Hyl	-6391
▁Ire	-6392
▁Jam	-6393
▁Jan	-6394
▁Jem	-6395
▁Jim	-6396
▁Lea	-6397
▁Mou	-6398
▁Oct	-6399
'!	-6400
Ag	-6401
Am	-6402
Bo	-6403
Bu	-6404
Cr	-6405
Ja	-6406
Mu	-6407
Po	-6408
Ro	-6409
eh	-6410
ei	-6411
ex	-6412
fo	-6413
ib	-6414
io	-6415
iq	-6416
ka	-6417
kn	-6418
li	-6419
ml	-6420
no	-6421
ns	-6422
sv	-6423
ti	-6424
tn	-6425
ua	-6426
wi	-6427
▁i	-6428
Min	-6429
ais	-6430
arv	-6431
bou	-6432
ckl	-6433
erm	-6434
git	-6435
lse	-6436
mem	-6437
olv	-6438
qui	-6439
ram	-6440
rin	-6441
rot	-6442
uer	-6443
uty	-6444
vey	-6445
vis	-6446
yst	-6447
▁Hy	-6448
▁ni	-6449
▁oi	-6450
▁ot	-6451
▁ti	-6452
ainy	-6453
edly	-6454
hank	-6455
ingl	-6456
link	-6457
onqu	-6458
oref	-6459
outc	-6460
outw	-6461
peak	-6462
quet	-6463
sset	-6464
vain	-6465
▁Lit	-6466
▁Per	-6467
▁Pil	-6468
▁Rak	-6469
▁Rep	-6470
▁Row	-6471
▁Sin	-6472
▁Som	-6473
▁Ste	-6474
▁Sty	-6475
▁Tha	-6476
▁Tur	-6477
▁Unt	-6478
▁Wat	-6479
▁Whe	-6480
▁Wid	-6481
▁Wit	-6482
▁acc	-6483
▁ald	-6484
▁apr	-6485
▁arg	-6486
▁ass	-6487
▁bat	-6488
▁bea	-6489
▁beh	-6490
▁ben	-6491
▁bes	-6492
▁bey	-6493
▁ble	-6494
▁bom	-6495
▁bot	-6496
▁buz	-6497
▁cat	-6498
▁cau	-6499
At	-6500
Ca	-6501
Cu	-6502
Gi	-6503
Il	-6504
Me	-6505
Ne	-6506
Un	-6507
ds	-6508
ea	-6509
hi	-6510
hs	-6511
iv	-6512
nu	-6513
oc	-6514
rc	-6515
tt	-6516
uf	-6517
uq	-6518
Com	-6519
Con	-6520
Lou	-6521
Mes	-6522
Mor	-6523
Mur	-6524
Ret	-6525
any	-6526
atc	-6527
aye	-6528
cqu	-6529
hai	-6530
hun	-6531
iam	-6532
isf	-6533
lad	-6534
lou	-6535
lut	-6536
nou	-6537
omf	-6538
ppo	-6539
ppy	-6540
rey	-6541
tay	-6542
wam	-6543
▁Ic	-6544
▁Te	-6545
▁ad	-6546
▁bi	-6547
▁oa	-6548
▁oc	-6549
▁ta	-6550
Ming	-6551
arri	-6552
heed	-6553
idge	-6554
irre	-6555
lade	-6556
lain	-6557
outs	-6558
oves	-6559
pled	-6560
rope	-6561
vent	-6562
xist	-6563
▁agl	-6564
▁bec	-6565
▁ced	-6566
▁cit	-6567
▁cla	-6568
▁coo	-6569
▁cot	-6570
▁dan	-6571
▁daz	-6572
▁dit	-6573
▁dom	-6574
▁dus	-6575
▁edu	-6576
▁eit	-6577
▁elb	-6578
▁emb	-6579
▁exa	-6580
▁fac	-6581
▁fad	-6582
▁fan	-6583
▁fas	-6584
▁fat	-6585
▁fea	-6586
▁fen	-6587
▁fer	-6588
▁fis	-6589
▁fla	-6590
▁fro	-6591
▁gam	-6592
▁gar	-6593
▁gon	-6594
▁hai	-6595
▁hal	-6596
▁han	-6597
▁hap	-6598
▁hau	-6599
'"	-6600
Im	-6601
Na	-6602
Su	-6603
bo	-6604
ca	-6605
dg	-6606
di	-6607
ej	-6608
gg	-6609
ja	-6610
je	-6611
ko	-6612
lb	-6613
lv	-6614
nw	-6615
pu	-6616
rd	-6617
rf	-6618
rg	-6619
sy	-6620
ts	-6621
ub	-6622
yn	-6623
Bot	-6624
Dif	-6625
Hor	-6626
apt	-6627
bre	-6628
can	-6629
car	-6630
gul	-6631
hac	-6632
haz	-6633
hew	-6634
itu	-6635
lla	-6636
oad	-6637
oam	-6638
ola	-6639
omp	-6640
orm	-6641
owt	-6642
ply	-6643
rev	-6644
rou	-6645
rre	-6646
uis	-6647
urm	-6648
▁Ti	-6649
▁fi	-6650
Eart	-6651
arat	-6652
cely	-6653
choo	-6654
cuit	-6655
edst	-6656
enou	-6657
fill	-6658
hall	-6659
idle	-6660
imit	-6661
ison	-6662
iver	-6663
ldre	-6664
nday	-6665
ower	-6666
unch	-6667
utif	-6668
vite	-6669
▁Enc	-6670
▁Fas	-6671
▁Gul	-6672
▁Lad	-6673
▁Lan	-6674
▁Wou	-6675
▁arr	-6676
▁dou	-6677
▁dow	-6678
▁gan	-6679
▁gat	-6680
▁hav	-6681
▁hea	-6682
▁hee	-6683
▁hel	-6684
▁hen	-6685
▁hin	-6686
▁hob	-6687
▁hor	-6688
▁inc	-6689
▁inf	-6690
▁ins	-6691
▁jar	-6692
▁jol	-6693
▁jud	-6694
▁lat	-6695
▁lik	-6696
▁map	-6697
▁mas	-6698
▁mat	-6699
Ar	-6700
Cy	-6701
Di	-6702
Fo	-6703
Ju	-6704
Li	-6705
eb	-6706
fr	-6707
hl	-6708
ht	-6709
ik	-6710
iw	-6711
mi	-6712
mn	-6713
mo	-6714
mu	-6715
oa	-6716
ok	-6717
ov	-6718
pa	-6719
pi	-6720
ta	-6721
td	-6722
wa	-6723
ys	-6724
Che	-6725
Len	-6726
Lon	-6727
Ple	-6728
Row	-6729
bor	-6730
cel	-6731
cor	-6732
cou	-6733
dit	-6734
esn	-6735
fas	-6736
ini	-6737
inw	-6738
isl	-6739
ito	-6740
kit	-6741
non	-6742
orc	-6743
orw	-6744
pay	-6745
rit	-6746
rst	-6747
sen	-6748
sol	-6749
ste	-6750
tag	-6751
tan	-6752
tin	-6753
ule	-6754
uss	-6755
van	-6756
▁La	-6757
▁hu	-6758
▁mi	-6759
▁ur	-6760
▁ya	-6761
anis	-6762
atly	-6763
eted	-6764
imes	-6765
irls	-6766
isle	-6767
istl	-6768
keen	-6769
ndin	-6770
oman	-6771
stle	-6772
ught	-6773
▁Sor	-6774
▁fou	-6775
▁inw	-6776
▁mel	-6777
▁mes	-6778
▁mit	-6779
▁mix	-6780
▁mor	-6781
▁nes	-6782
▁non	-6783
▁occ	-6784
▁onc	-6785
▁onl	-6786
▁pan	-6787
▁pas	-6788
▁pil	-6789
▁pin	-6790
▁pla	-6791
▁plo	-6792
▁poe	-6793
▁por	-6794
▁pus	-6795
▁que	-6796
▁rab	-6797
▁rem	-6798
▁roo	-6799
Ea	-6800
Ei	-6801
El	-6802
Er	-6803
Fa	-6804
Fl	-6805
Ga	-6806
Hu	-6807
Hy	-6808
Ir	-6809
Je	-6810
Nu	-6811
Pi	-6812
Sc	-6813
Sq	-6814
Sw	-6815
Tu	-6816
cq	-6817
cy	-6818
df	-6819
dt	-6820
dw	-6821
ef	-6822
fs	-6823
gu	-6824
gy	-6825
hb	-6826
hh	-6827
mb	-6828
nj	-6829
nl	-6830
rl	-6831
sg	-6832
tf	-6833
uz	-6834
wr	-6835
xe	-6836
xi	-6837
zl	-6838
Par	-6839
Whe	-6840
Wit	-6841
des	-6842
enl	-6843
eso	-6844
ima	-6845
ipt	-6846
iqu	-6847
isk	-6848
jou	-6849
nat	-6850
orb	-6851
pis	-6852
rov	-6853
sre	-6854
ssu	-6855
sto	-6856
tol	-6857
ugg	-6858
wee	-6859
▁Im	-6860
▁Tu	-6861
dled	-6862
eten	-6863
heet	-6864
late	-6865
llar	-6866
ndid	-6867
oing	-6868
omen	-6869
uall	-6870
uare	-6871
usti	-6872
vell	-6873
▁Lat	-6874
▁bef	-6875
▁cid	-6876
▁cou	-6877
▁fal	-6878
▁rou	-6879
▁sei	-6880
▁sen	-6881
▁sep	-6882
▁sid	-6883
▁sis	-6884
▁sol	-6885
▁son	-6886
▁sor	-6887
▁sou	-6888
▁spl	-6889
▁sta	-6890
▁sti	-6891
▁swa	-6892
▁syr	-6893
▁tar	-6894
▁tas	-6895
▁thi	-6896
▁tho	-6897
▁tid	-6898
▁tob	-6899
Af	-6900
Fe	-6901
Hi	-6902
Ni	-6903
bj	-6904
dn	-6905
eq	-6906
fy	-6907
hf	-6908
hm	-6909
hn	-6910
nf	-6911
nh	-6912
np	-6913
nv	-6914
pb	-6915
pw	-6916
py	-6917
sm	-6918
sr	-6919
tm	-6920
tr	-6921
ym	-6922
Car	-6923
Dar	-6924
Rid	-6925
din	-6926
era	-6927
esc	-6928
hea	-6929
hee	-6930
hom	-6931
ker	-6932
met	-6933
mil	-6934
nen	-6935
nhe	-6936
ouq	-6937
ras	-6938
rec	-6939
ref	-6940
sha	-6941
she	-6942
whe	-6943
xit	-6944
▁ai	-6945
▁ow	-6946
▁wi	-6947
ants	-6948
enam	-6949
ethe	-6950
heer	-6951
hort	-6952
ishe	-6953
lant	-6954
olat	-6955
olou	-6956
ownw	-6957
rink	-6958
umst	-6959
vast	-6960
vert	-6961
▁Fol	-6962
▁War	-6963
▁cof	-6964
▁fli	-6965
▁hei	-6966
▁inn	-6967
▁nor	-6968
▁sai	-6969
▁sas	-6970
▁tak	-6971
▁ton	-6972
▁tos	-6973
▁udd	-6974
▁una	-6975
▁unn	-6976
▁upl	-6977
▁ups	-6978
▁val	-6979
▁wen	-6980
▁wes	-6981
▁wid	-6982
▁woo	-6983
▁wre	-6984
▁yar	-6985
▁yie	-6986
Goodb	-6987
Perha	-6988
ables	-6989
agged	-6990
ailed	-6991
aired	-6992
aised	-6993
alanc	-6994
alked	-6995
amily	-6996
ancas	-6997
anged	-6998
angem	-6999
Mi	-7000
Sp	-7001
dr	-7002
mf	-7003
sf	-7004
yd	-7005
yr	-7006
Fin	-7007
Mas	-7008
Sha	-7009
Sin	-7010
Sit	-7011
anb	-7012
arg	-7013
cin	-7014
con	-7015
ctu	-7016
den	-7017
eld	-7018
ert	-7019
gun	-7020
haf	-7021
hin	-7022
hoo	-7023
ics	-7024
inc	-7025
inf	-7026
int	-7027
inv	-7028
iny	-7029
kin	-7030
kly	-7031
nde	-7032
nin	-7033
oma	-7034
pin	-7035
rom	-7036
uin	-7037
vin	-7038
wha	-7039
▁Fa	-7040
▁ci	-7041
▁fa	-7042
▁si	-7043
arkn	-7044
erfe	-7045
gion	-7046
hanc	-7047
ieve	-7048
igid	-7049
illa	-7050
imed	-7051
lers	-7052
oose	-7053
othe	-7054
rail	-7055
star	-7056
usic	-7057
verd	-7058
▁Bot	-7059
▁Hal	-7060
▁Mes	-7061
▁Sou	-7062
▁asy	-7063
▁coa	-7064
▁dev	-7065
▁hab	-7066
▁lim	-7067
▁mou	-7068
▁pou	-7069
▁soc	-7070
▁soi	-7071
▁tot	-7072
anger	-7073
anked	-7074
anket	-7075
anted	-7076
anter	-7077
apers	-7078
arble	-7079
aring	-7080
arket	-7081
arnis	-7082
arold	-7083
arrow	-7084
artic	-7085
asily	-7086
asket	-7087
aters	-7088
aused	-7089
autif	-7090
awags	-7091
banks	-7092
bling	-7093
brace	-7094
chool	-7095
ckers	-7096
cling	-7097
compl	-7098
cribe	-7099
En	-7100
Jo	-7101
Ou	-7102
Pl	-7103
Sn	-7104
fn	-7105
hr	-7106
hu	-7107
hw	-7108
lu	-7109
nb	-7110
nk	-7111
oy	-7112
sq	-7113
wf	-7114
zi	-7115
Bou	-7116
Fat	-7117
Fre	-7118
Get	-7119
Pin	-7120
Sou	-7121
Tha	-7122
Und	-7123
adf	-7124
asi	-7125
dou	-7126
dre	-7127
eny	-7128
epl	-7129
erd	-7130
fin	-7131
hou	-7132
hre	-7133
ial	-7134
iou	-7135
mou	-7136
oug	-7137
pou	-7138
que	-7139
rej	-7140
rem	-7141
rep	-7142
req	-7143
rha	-7144
ris	-7145
tri	-7146
wat	-7147
wor	-7148
▁Ba	-7149
▁Oc	-7150
Cher	-7151
Over	-7152
Pick	-7153
acks	-7154
acon	-7155
bing	-7156
cial	-7157
hand	-7158
heck	-7159
ided	-7160
isre	-7161
ndre	-7162
oure	-7163
race	-7164
rele	-7165
uess	-7166
urns	-7167
▁Dar	-7168
▁Day	-7169
▁Mad	-7170
▁haz	-7171
▁knu	-7172
▁per	-7173
▁pis	-7174
▁thu	-7175
▁tin	-7176
▁wou	-7177
Could	-7178
angen	-7179
cture	-7180
dders	-7181
ddled	-7182
dered	-7183
dvanc	-7184
dvant	-7185
dvice	-7186
dvise	-7187
dwell	-7188
earls	-7189
ector	-7190
eeble	-7191
emocr	-7192
ender	-7193
enged	-7194
ength	-7195
enson	-7196
entle	-7197
erate	-7198
erged	-7199
Fu	-7200
ga	-7201
go	-7202
hd	-7203
ob	-7204
rk	-7205
ws	-7206
Loo	-7207
Rif	-7208
Wha	-7209
adn	-7210
chu	-7211
eas	-7212
erw	-7213
fen	-7214
fit	-7215
got	-7216
hak	-7217
hal	-7218
har	-7219
hay	-7220
imm	-7221
isi	-7222
its	-7223
kee	-7224
ldl	-7225
oni	-7226
orh	-7227
til	-7228
uri	-7229
vit	-7230
▁Aw	-7231
▁Bu	-7232
▁Fe	-7233
▁Hu	-7234
▁Mo	-7235
▁Pr	-7236
▁dw	-7237
▁ef	-7238
▁lu	-7239
▁ob	-7240
▁op	-7241
▁sq	-7242
aist	-7243
anta	-7244
arad	-7245
core	-7246
cout	-7247
etar	-7248
hare	-7249
ical	-7250
imse	-7251
ingt	-7252
leve	-7253
mmer	-7254
ndit	-7255
omis	-7256
owny	-7257
rops	-7258
sing	-7259
uild	-7260
wice	-7261
▁Whi	-7262
▁Woo	-7263
▁awk	-7264
▁bit	-7265
▁cen	-7266
▁fra	-7267
▁gen	-7268
▁lin	-7269
▁lon	-7270
▁lou	-7271
▁mea	-7272
▁tog	-7273
▁upp	-7274
▁wha	-7275
▁wit	-7276
Somet	-7277
ermon	-7278
erned	-7279
erous	-7280
erted	-7281
escri	-7282
esome	-7283
etain	-7284
etals	-7285
etche	-7286
eting	-7287
etter	-7288
etual	-7289
evert	-7290
fairs	-7291
fectu	-7292
fness	-7293
fraid	-7294
fusal	-7295
fused	-7296
ghten	-7297
gular	-7298
hanks	-7299
Us	-7300
Ye	-7301
ev	-7302
lm	-7303
ni	-7304
oi	-7305
su	-7306
Her	-7307
ago	-7308
awn	-7309
ayf	-7310
cef	-7311
chf	-7312
chi	-7313
dch	-7314
der	-7315
eap	-7316
ech	-7317
erf	-7318
eri	-7319
err	-7320
het	-7321
lot	-7322
nch	-7323
ndi	-7324
ori	-7325
tor	-7326
tra	-7327
unc	-7328
▁Bi	-7329
▁Se	-7330
▁Sn	-7331
▁Sq	-7332
ampl	-7333
arch	-7334
chis	-7335
ctim	-7336
etch	-7337
isch	-7338
ithd	-7339
lind	-7340
lver	-7341
ming	-7342
otch	-7343
otic	-7344
ouch	-7345
vera	-7346
verg	-7347
yone	-7348
▁Ban	-7349
▁Bat	-7350
▁Bes	-7351
▁Lun	-7352
▁Wen	-7353
▁ach	-7354
▁bis	-7355
▁boo	-7356
▁bro	-7357
▁goo	-7358
▁gru	-7359
▁hoo	-7360
▁hou	-7361
▁les	-7362
▁lov	-7363
▁mot	-7364
▁sig	-7365
▁ver	-7366
Light	-7367
Right	-7368
aight	-7369
anche	-7370
eaked	-7371
hates	-7372
heris	-7373
herly	-7374
hless	-7375
hough	-7376
hrist	-7377
icing	-7378
iding	-7379
ieces	-7380
ields	-7381
ighte	-7382
ightf	-7383
ightl	-7384
ights	-7385
ignal	-7386
ignit	-7387
illis	-7388
illou	-7389
ilver	-7390
imbed	-7391
iming	-7392
impat	-7393
imple	-7394
imply	-7395
indow	-7396
inety	-7397
ingin	-7398
ingle	-7399
Ra	-7400
ec	-7401
iu	-7402
Fee	-7403
Fir	-7404
cir	-7405
ckh	-7406
cki	-7407
ckw	-7408
dee	-7409
eck	-7410
eeb	-7411
fee	-7412
ifi	-7413
ifl	-7414
ifu	-7415
ird	-7416
iri	-7417
irs	-7418
lir	-7419
lon	-7420
nee	-7421
nif	-7422
pee	-7423
pir	-7424
rif	-7425
sta	-7426
sty	-7427
uee	-7428
vic	-7429
▁Na	-7430
▁Pa	-7431
▁ki	-7432
Must	-7433
astn	-7434
ckad	-7435
cker	-7436
cket	-7437
ckor	-7438
eech	-7439
eere	-7440
fway	-7441
hack	-7442
hair	-7443
ilen	-7444
irch	-7445
mone	-7446
omeb	-7447
omeh	-7448
omew	-7449
pell	-7450
rant	-7451
ript	-7452
rout	-7453
sked	-7454
uite	-7455
umbs	-7456
uran	-7457
verc	-7458
webs	-7459
▁Sir	-7460
▁Wee	-7461
▁blo	-7462
▁cir	-7463
▁dee	-7464
▁dif	-7465
▁fri	-7466
▁gif	-7467
▁jum	-7468
▁kit	-7469
▁ove	-7470
▁shi	-7471
▁wee	-7472
▁wif	-7473
▁wir	-7474
aimed	-7475
avine	-7476
comes	-7477
eeing	-7478
emima	-7479
hever	-7480
iable	-7481
iated	-7482
inute	-7483
ipper	-7484
ircum	-7485
irect	-7486
irred	-7487
ischa	-7488
ising	-7489
ision	-7490
issed	-7491
istur	-7492
itchf	-7493
ithhe	-7494
ithin	-7495
iting	-7496
ixity	-7497
izing	-7498
kered	-7499
cu	-7500
ho	-7501
wt	-7502
Bow	-7503
Cor	-7504
cce	-7505
cep	-7506
cif	-7507
cit	-7508
gre	-7509
hif	-7510
him	-7511
ina	-7512
inn	-7513
lif	-7514
mim	-7515
mod	-7516
ray	-7517
rig	-7518
rof	-7519
uce	-7520
uft	-7521
val	-7522
wun	-7523
xce	-7524
zin	-7525
▁Ot	-7526
▁dy	-7527
Find	-7528
Mind	-7529
Rack	-7530
Your	-7531
ande	-7532
ceed	-7533
ceit	-7534
cend	-7535
cere	-7536
ders	-7537
gher	-7538
herl	-7539
hers	-7540
irth	-7541
kere	-7542
pill	-7543
port	-7544
ride	-7545
tway	-7546
ully	-7547
▁Gre	-7548
▁Hel	-7549
▁Lon	-7550
▁cal	-7551
▁dof	-7552
▁fru	-7553
▁kno	-7554
▁orc	-7555
▁shu	-7556
▁sim	-7557
▁wea	-7558
▁wel	-7559
chion	-7560
ether	-7561
hould	-7562
ightm	-7563
iller	-7564
illim	-7565
inded	-7566
indre	-7567
lders	-7568
lding	-7569
leven	-7570
llars	-7571
llied	-7572
llows	-7573
lways	-7574
moner	-7575
nderg	-7576
ndles	-7577
ndone	-7578
ndred	-7579
ngest	-7580
nomes	-7581
nough	-7582
ntain	-7583
oated	-7584
octor	-7585
oever	-7586
oiled	-7587
oking	-7588
olish	-7589
ombed	-7590
oment	-7591
omeon	-7592
oming	-7593
onsen	-7594
onsol	-7595
opped	-7596
orens	-7597
ories	-7598
oring	-7599
Ha	-7600
sa	-7601
Dro	-7602
Pur	-7603
cka	-7604
cur	-7605
ely	-7606
eon	-7607
eve	-7608
ewe	-7609
gid	-7610
hly	-7611
hur	-7612
idg	-7613
isn	-7614
lyp	-7615
nda	-7616
oal	-7617
oli	-7618
squ	-7619
tty	-7620
tur	-7621
ura	-7622
urb	-7623
urg	-7624
url	-7625
urt	-7626
ury	-7627
wns	-7628
▁vi	-7629
Call	-7630
atur	-7631
cted	-7632
enly	-7633
erra	-7634
hout	-7635
iece	-7636
ikes	-7637
indf	-7638
indr	-7639
kely	-7640
ldly	-7641
mall	-7642
rely	-7643
rung	-7644
terd	-7645
terf	-7646
terl	-7647
terp	-7648
tert	-7649
terw	-7650
urre	-7651
urse	-7652
vely	-7653
wift	-7654
▁Bey	-7655
▁liv	-7656
▁lur	-7657
▁mem	-7658
▁mur	-7659
▁nur	-7660
▁poo	-7661
▁sac	-7662
▁saf	-7663
▁sam	-7664
▁sav	-7665
▁sur	-7666
▁tur	-7667
alled	-7668
allen	-7669
andth	-7670
arken	-7671
aterw	-7672
bours	-7673
cerns	-7674
enter	-7675
ingly	-7676
itive	-7677
orner	-7678
othed	-7679
othes	-7680
ottag	-7681
ottle	-7682
ottom	-7683
otton	-7684
ouche	-7685
oughn	-7686
oulde	-7687
ounge	-7688
ouris	-7689
ourse	-7690
ourte	-7691
ousef	-7692
outed	-7693
outer	-7694
ouths	-7695
oward	-7696
owing	-7697
pened	-7698
perfe	-7699
bb	-7700
bw	-7701
dc	-7702
ki	-7703
Cou	-7704
Ess	-7705
Gre	-7706
Mou	-7707
ami	-7708
amo	-7709
ayb	-7710
ham	-7711
irm	-7712
lam	-7713
ndo	-7714
pra	-7715
rer	-7716
upp	-7717
wan	-7718
wob	-7719
wou	-7720
xpe	-7721
Lore	-7722
Mone	-7723
Yell	-7724
ails	-7725
alle	-7726
bell	-7727
comm	-7728
ello	-7729
ghtm	-7730
hore	-7731
isti	-7732
kill	-7733
lame	-7734
lone	-7735
nake	-7736
ouds	-7737
ours	-7738
ourt	-7739
rain	-7740
reez	-7741
rict	-7742
seed	-7743
tuck	-7744
ulle	-7745
vall	-7746
wake	-7747
▁Fum	-7748
▁Rid	-7749
▁cam	-7750
▁cru	-7751
▁fre	-7752
▁lam	-7753
▁loa	-7754
▁nam	-7755
▁rea	-7756
▁ree	-7757
▁ref	-7758
▁req	-7759
▁res	-7760
▁soj	-7761
▁sub	-7762
▁sud	-7763
▁til	-7764
ainst	-7765
allow	-7766
awyer	-7767
ckage	-7768
earan	-7769
elled	-7770
immed	-7771
inish	-7772
itone	-7773
onely	-7774
orest	-7775
phone	-7776
pless	-7777
pling	-7778
pread	-7779
press	-7780
pring	-7781
pting	-7782
quite	-7783
raced	-7784
racks	-7785
ragon	-7786
raise	-7787
reach	-7788
reall	-7789
reath	-7790
redul	-7791
reets	-7792
reped	-7793
rever	-7794
ribed	-7795
right	-7796
ringt	-7797
rised	-7798
roper	-7799
Pr	-7800
nc	-7801
Dra	-7802
Ire	-7803
Lis	-7804
Lit	-7805
Pil	-7806
Wou	-7807
atu	-7808
bro	-7809
eil	-7810
hau	-7811
hut	-7812
ilf	-7813
ili	-7814
ilk	-7815
iti	-7816
las	-7817
mly	-7818
rod	-7819
set	-7820
uil	-7821
vat	-7822
yar	-7823
▁Wo	-7824
Look	-7825
ache	-7826
amil	-7827
arie	-7828
arre	-7829
erms	-7830
eway	-7831
gust	-7832
ickl	-7833
igns	-7834
iles	-7835
inks	-7836
just	-7837
lace	-7838
lour	-7839
oodb	-7840
ooks	-7841
orne	-7842
rook	-7843
rust	-7844
tate	-7845
took	-7846
ural	-7847
uste	-7848
usty	-7849
vour	-7850
wing	-7851
▁Sil	-7852
▁ang	-7853
▁ank	-7854
▁bob	-7855
▁dag	-7856
▁kne	-7857
▁lef	-7858
▁pom	-7859
▁tal	-7860
▁upw	-7861
▁wil	-7862
esale	-7863
haust	-7864
hingl	-7865
oodch	-7866
ooded	-7867
ooden	-7868
ooked	-7869
oughb	-7870
oughs	-7871
rowth	-7872
scent	-7873
seful	-7874
sider	-7875
ssess	-7876
ssing	-7877
ssure	-7878
stanc	-7879
stell	-7880
sting	-7881
tched	-7882
tence	-7883
terst	-7884
tless	-7885
ublic	-7886
udden	-7887
uding	-7888
ueber	-7889
uised	-7890
unche	-7891
ungry	-7892
uning	-7893
unnel	-7894
upied	-7895
urche	-7896
uried	-7897
urled	-7898
urnit	-7899
kh	-7900
oj	-7901
Cam	-7902
Dam	-7903
Pre	-7904
Unt	-7905
aln	-7906
bes	-7907
cro	-7908
ein	-7909
epe	-7910
eps	-7911
fou	-7912
hec	-7913
iec	-7914
iev	-7915
spe	-7916
▁Cy	-7917
▁Lo	-7918
▁Lu	-7919
▁Ma	-7920
▁Mu	-7921
alan	-7922
alis	-7923
ards	-7924
ceal	-7925
eral	-7926
ghtf	-7927
hild	-7928
hink	-7929
inal	-7930
inkl	-7931
keep	-7932
olab	-7933
onal	-7934
osen	-7935
rall	-7936
real	-7937
ream	-7938
redu	-7939
reep	-7940
rown	-7941
ushe	-7942
wink	-7943
▁Int	-7944
▁Lay	-7945
▁Lis	-7946
▁Low	-7947
▁Mas	-7948
▁Mis	-7949
▁Mon	-7950
▁Mur	-7951
▁ast	-7952
▁bod	-7953
▁jun	-7954
▁nei	-7955
▁nod	-7956
▁sho	-7957
▁suc	-7958
▁suf	-7959
▁sup	-7960
▁sus	-7961
▁wal	-7962
▁wav	-7963
arved	-7964
berri	-7965
enbur	-7966
eping	-7967
ially	-7968
ildre	-7969
ndern	-7970
osing	-7971
ownst	-7972
sents	-7973
urple	-7974
urred	-7975
urrow	-7976
ursed	-7977
using	-7978
uthor	-7979
uties	-7980
utile	-7981
utter	-7982
utumn	-7983
uture	-7984
vered	-7985
verhe	-7986
verse	-7987
verys	-7988
ville	-7989
voked	-7990
wards	-7991
while	-7992
wling	-7993
would	-7994
▁Acce	-7995
▁Affe	-7996
▁Alth	-7997
▁Asyl	-7998
▁Bost	-7999
La	-8000
kw	-8001
Got	-8002
cra	-8003
eam	-8004
edg	-8005
elf	-8006
idn	-8007
loy	-8008
lve	-8009
nly	-8010
oms	-8011
ppa	-8012
ppe	-8013
rap	-8014
rav	-8015
ros	-8016
tly	-8017
umm	-8018
wig	-8019
yin	-8020
▁Ga	-8021
▁Nu	-8022
▁Ro	-8023
Down	-8024
Some	-8025
anti	-8026
aver	-8027
hang	-8028
hant	-8029
ires	-8030
llie	-8031
llou	-8032
lped	-8033
lway	-8034
ovep	-8035
owth	-8036
path	-8037
ppen	-8038
ppet	-8039
pple	-8040
rais	-8041
rand	-8042
road	-8043
stan	-8044
twix	-8045
udic	-8046
ulse	-8047
urst	-8048
yway	-8049
▁Bec	-8050
▁Nam	-8051
▁Nat	-8052
▁Wil	-8053
▁bra	-8054
▁cor	-8055
▁dra	-8056
▁nea	-8057
▁nex	-8058
▁opp	-8059
▁vot	-8060
Under	-8061
adied	-8062
antic	-8063
arent	-8064
ghway	-8065
lfway	-8066
orway	-8067
ulate	-8068
▁Eart	-8069
▁Flir	-8070
▁Frie	-8071
▁Fumb	-8072
▁Hudd	-8073
▁Inst	-8074
▁Lanc	-8075
▁Late	-8076
▁List	-8077
▁Litt	-8078
▁Lore	-8079
▁Magn	-8080
▁Mone	-8081
▁Mont	-8082
▁Murd	-8083
▁Rele	-8084
▁Shat	-8085
▁Shel	-8086
▁Slum	-8087
▁Sout	-8088
▁Stop	-8089
▁Sund	-8090
▁Thei	-8091
▁Week	-8092
▁Weis	-8093
▁Wood	-8094
▁abod	-8095
▁acce	-8096
▁acqu	-8097
▁afra	-8098
▁amet	-8099
Do	-8100
Fr	-8101
Ji	-8102
Mo	-8103
Ri	-8104
Ta	-8105
ek	-8106
kl	-8107
Per	-8108
Rak	-8109
akf	-8110
bly	-8111
cea	-8112
cre	-8113
eop	-8114
fie	-8115
gem	-8116
hro	-8117
iek	-8118
lak	-8119
lie	-8120
rie	-8121
sal	-8122
sic	-8123
tle	-8124
vie	-8125
vou	-8126
wed	-8127
▁Fi	-8128
▁Fo	-8129
▁Fu	-8130
▁Je	-8131
bide	-8132
edro	-8133
etal	-8134
ideh	-8135
iffs	-8136
ispe	-8137
lack	-8138
mout	-8139
oard	-8140
ored	-8141
part	-8142
reak	-8143
rove	-8144
used	-8145
wild	-8146
▁End	-8147
▁Fat	-8148
▁Fee	-8149
▁Nak	-8150
▁doc	-8151
▁equ	-8152
▁fie	-8153
▁fif	-8154
▁foo	-8155
▁ide	-8156
▁mak	-8157
▁nec	-8158
▁spa	-8159
▁wak	-8160
acken	-8161
acker	-8162
essit	-8163
esson	-8164
essor	-8165
isper	-8166
pples	-8167
ummer	-8168
▁anot	-8169
▁answ	-8170
▁appe	-8171
▁appl	-8172
▁aris	-8173
▁asha	-8174
▁asle	-8175
▁asyl	-8176
▁ball	-8177
▁barg	-8178
▁batt	-8179
▁beas	-8180
▁beat	-8181
▁begu	-8182
▁bewh	-8183
▁bigg	-8184
▁blam	-8185
▁blus	-8186
▁braw	-8187
▁brit	-8188
▁brot	-8189
▁brut	-8190
▁budd	-8191
▁buil	-8192
▁butt	-8193
▁catt	-8194
▁cell	-8195
▁cham	-8196
▁chat	-8197
▁cher	-8198
▁chim	-8199
De	-8200
ox	-8201
yi	-8202
Jun	-8203
Run	-8204
ala	-8205
asu	-8206
aun	-8207
cer	-8208
cry	-8209
erc	-8210
erl	-8211
ici	-8212
ita	-8213
jun	-8214
rys	-8215
tre	-8216
uar	-8217
une	-8218
uni	-8219
unl	-8220
unn	-8221
uns	-8222
▁Pl	-8223
▁ir	-8224
▁ja	-8225
▁je	-8226
▁ju	-8227
Past	-8228
anct	-8229
aste	-8230
asts	-8231
cast	-8232
east	-8233
edge	-8234
enti	-8235
entr	-8236
enty	-8237
erry	-8238
gard	-8239
hest	-8240
icin	-8241
ifix	-8242
ifty	-8243
osty	-8244
ouqu	-8245
ryst	-8246
ssed	-8247
uard	-8248
urry	-8249
went	-8250
▁Lou	-8251
▁arc	-8252
▁bul	-8253
▁bun	-8254
▁clo	-8255
▁cob	-8256
▁dec	-8257
▁fau	-8258
▁lof	-8259
▁los	-8260
▁ren	-8261
▁rue	-8262
▁wan	-8263
agern	-8264
arded	-8265
arned	-8266
artly	-8267
asted	-8268
ciled	-8269
ented	-8270
entim	-8271
ently	-8272
entry	-8273
hered	-8274
ident	-8275
ildly	-8276
illag	-8277
inked	-8278
reast	-8279
unter	-8280
▁Fear	-8281
▁Incl	-8282
▁agre	-8283
▁brie	-8284
▁clat	-8285
▁clea	-8286
▁clou	-8287
▁comf	-8288
▁comm	-8289
▁comp	-8290
▁conc	-8291
▁cond	-8292
▁conf	-8293
▁cook	-8294
▁cran	-8295
▁cras	-8296
▁crat	-8297
▁craz	-8298
▁crum	-8299
Sa	-8300
Bet	-8301
Mis	-8302
Tow	-8303
ara	-8304
eit	-8305
ghb	-8306
hit	-8307
ium	-8308
lay	-8309
lum	-8310
nal	-8311
nts	-8312
ntu	-8313
rum	-8314
▁Wa	-8315
Came	-8316
More	-8317
Year	-8318
amel	-8319
arts	-8320
earl	-8321
ffee	-8322
hree	-8323
inds	-8324
inis	-8325
long	-8326
lter	-8327
lyps	-8328
mple	-8329
nted	-8330
ntry	-8331
oner	-8332
pers	-8333
pock	-8334
rong	-8335
ssen	-8336
urnt	-8337
utum	-8338
vern	-8339
▁Dre	-8340
▁Dro	-8341
▁Num	-8342
▁ali	-8343
▁alm	-8344
▁alt	-8345
▁bol	-8346
▁bum	-8347
▁cli	-8348
▁dum	-8349
▁num	-8350
▁pat	-8351
▁rum	-8352
▁sod	-8353
▁sty	-8354
▁tol	-8355
▁unt	-8356
▁vie	-8357
amond	-8358
ander	-8359
arted	-8360
clare	-8361
earie	-8362
ename	-8363
feren	-8364
ghted	-8365
ndert	-8366
onder	-8367
ppear	-8368
ptain	-8369
ument	-8370
uming	-8371
▁alre	-8372
▁bitt	-8373
▁blan	-8374
▁bree	-8375
▁cler	-8376
▁clif	-8377
▁clim	-8378
▁clum	-8379
▁clun	-8380
▁curt	-8381
▁curv	-8382
▁danc	-8383
▁daun	-8384
▁dayl	-8385
▁decl	-8386
▁defe	-8387
▁depl	-8388
▁desc	-8389
▁ding	-8390
▁disa	-8391
▁disl	-8392
▁disp	-8393
▁doct	-8394
▁doff	-8395
▁droo	-8396
▁drow	-8397
▁drun	-8398
▁eart	-8399
Pa	-8400
Pu	-8401
Tr	-8402
bt	-8403
mm	-8404
sw	-8405
xp	-8406
Bat	-8407
aft	-8408
agg	-8409
atl	-8410
cti	-8411
ict	-8412
irl	-8413
lic	-8414
lli	-8415
mul	-8416
nne	-8417
oat	-8418
olk	-8419
ssi	-8420
▁Cl	-8421
▁Co	-8422
▁Cr	-8423
Nons	-8424
andt	-8425
arne	-8426
aseb	-8427
blic	-8428
chol	-8429
ctre	-8430
eath	-8431
give	-8432
hose	-8433
imne	-8434
itat	-8435
ivel	-8436
iven	-8437
lect	-8438
litt	-8439
peat	-8440
rect	-8441
rive	-8442
sand	-8443
sive	-8444
ssom	-8445
unct	-8446
unne	-8447
▁Asy	-8448
▁Beg	-8449
▁Cat	-8450
▁Con	-8451
▁Des	-8452
▁bas	-8453
▁col	-8454
▁cro	-8455
▁kep	-8456
▁nob	-8457
▁sof	-8458
▁tha	-8459
avour	-8460
hance	-8461
hange	-8462
inter	-8463
itely	-8464
ourne	-8465
urned	-8466
yself	-8467
▁Aver	-8468
▁Cher	-8469
▁Sitt	-8470
▁anyt	-8471
▁anyw	-8472
▁cand	-8473
▁easi	-8474
▁ebon	-8475
▁empt	-8476
▁enjo	-8477
▁exce	-8478
▁excl	-8479
▁excu	-8480
▁expe	-8481
▁expl	-8482
▁expo	-8483
▁fare	-8484
▁fatt	-8485
▁feat	-8486
▁flak	-8487
▁flam	-8488
▁flan	-8489
▁flor	-8490
▁flun	-8491
▁foll	-8492
▁forc	-8493
▁fort	-8494
▁forw	-8495
▁fram	-8496
▁fray	-8497
▁frie	-8498
▁fron	-8499
Ya	-8500
fi	-8501
wu	-8502
xh	-8503
Jam	-8504
arl	-8505
aug	-8506
aus	-8507
cau	-8508
dge	-8509
hon	-8510
ler	-8511
lre	-8512
nge	-8513
onj	-8514
org	-8515
▁De	-8516
▁eq	-8517
anch	-8518
augh	-8519
bers	-8520
chen	-8521
etwe	-8522
ford	-8523
gure	-8524
haft	-8525
hick	-8526
icks	-8527
imin	-8528
inci	-8529
ists	-8530
ives	-8531
lass	-8532
lick	-8533
mers	-8534
nest	-8535
olit	-8536
pare	-8537
quee	-8538
rewn	-8539
rves	-8540
wned	-8541
▁Mel	-8542
▁Oft	-8543
▁abo	-8544
▁lab	-8545
▁lif	-8546
▁lip	-8547
▁nau	-8548
▁tau	-8549
▁tru	-8550
▁vin	-8551
▁yel	-8552
agree	-8553
arely	-8554
earch	-8555
ewels	-8556
ickad	-8557
icker	-8558
icket	-8559
ickor	-8560
igure	-8561
iolin	-8562
iving	-8563
nting	-8564
orbin	-8565
owers	-8566
ppare	-8567
raves	-8568
thers	-8569
therw	-8570
▁Fran	-8571
▁Sale	-8572
▁base	-8573
▁frow	-8574
▁froz	-8575
▁furt	-8576
▁gard	-8577
▁gett	-8578
▁glan	-8579
▁grap	-8580
▁gras	-8581
▁grie	-8582
▁gris	-8583
▁grud	-8584
▁hang	-8585
▁harb	-8586
▁haun	-8587
▁hayf	-8588
▁heav	-8589
▁herm	-8590
▁hors	-8591
▁hous	-8592
▁howe	-8593
▁insp	-8594
▁inst	-8595
▁inte	-8596
▁itse	-8597
▁join	-8598
▁jour	-8599
Lu	-8600
Ov	-8601
wd	-8602
Har	-8603
ews	-8604
lin	-8605
lop	-8606
mpt	-8607
ndl	-8608
opl	-8609
try	-8610
tst	-8611
ude	-8612
vol	-8613
wag	-8614
wel	-8615
▁Pu	-8616
Sout	-8617
alks	-8618
allo	-8619
arkl	-8620
bled	-8621
erse	-8622
esol	-8623
ilde	-8624
irel	-8625
isag	-8626
lept	-8627
mory	-8628
olin	-8629
olis	-8630
ooth	-8631
oped	-8632
ople	-8633
rept	-8634
rice	-8635
sted	-8636
urer	-8637
▁Fir	-8638
▁Mak	-8639
▁Sep	-8640
▁blu	-8641
▁bog	-8642
▁bos	-8643
▁cho	-8644
▁mov	-8645
▁sna	-8646
▁spu	-8647
▁var	-8648
arked	-8649
arker	-8650
ayers	-8651
bwebs	-8652
cking	-8653
esire	-8654
house	-8655
isons	-8656
isted	-8657
nture	-8658
olden	-8659
rolls	-8660
tling	-8661
veryw	-8662
▁Comp	-8663
▁Fair	-8664
▁Sure	-8665
▁blad	-8666
▁boot	-8667
▁cost	-8668
▁dazz	-8669
▁hudd	-8670
▁knif	-8671
▁ladd	-8672
▁laug	-8673
▁lawy	-8674
▁lean	-8675
▁lear	-8676
▁leas	-8677
▁leat	-8678
▁leav	-8679
▁leve	-8680
▁lick	-8681
▁litt	-8682
▁loft	-8683
▁loll	-8684
▁mana	-8685
▁mank	-8686
▁mann	-8687
▁mead	-8688
▁meal	-8689
▁mell	-8690
▁mend	-8691
▁ment	-8692
▁mere	-8693
▁mini	-8694
▁misu	-8695
▁mock	-8696
▁mone	-8697
▁mopp	-8698
▁morn	-8699
Ol	-8700
de	-8701
fa	-8702
vu	-8703
cup	-8704
gal	-8705
kir	-8706
nor	-8707
otc	-8708
pti	-8709
thw	-8710
uel	-8711
var	-8712
▁Gr	-8713
▁Gu	-8714
aday	-8715
assa	-8716
assy	-8717
enes	-8718
epth	-8719
este	-8720
esti	-8721
ests	-8722
gest	-8723
heve	-8724
ible	-8725
ifts	-8726
iser	-8727
lare	-8728
olar	-8729
onth	-8730
otel	-8731
ovem	-8732
rece	-8733
rend	-8734
test	-8735
wist	-8736
zing	-8737
▁Thr	-8738
▁Wor	-8739
▁bud	-8740
▁cas	-8741
▁das	-8742
▁fel	-8743
▁pel	-8744
▁sca	-8745
▁scy	-8746
▁som	-8747
▁tri	-8748
arkly	-8749
assed	-8750
efore	-8751
etest	-8752
ioned	-8753
ipped	-8754
istak	-8755
istan	-8756
omest	-8757
onest	-8758
onger	-8759
ption	-8760
rible	-8761
sence	-8762
umble	-8763
ureau	-8764
usion	-8765
▁Nove	-8766
▁Thir	-8767
▁alth	-8768
▁cele	-8769
▁curi	-8770
▁faul	-8771
▁mout	-8772
▁murd	-8773
▁mush	-8774
▁myse	-8775
▁myst	-8776
▁nodd	-8777
▁nois	-8778
▁noth	-8779
▁noti	-8780
▁offi	-8781
▁offs	-8782
▁outd	-8783
▁outg	-8784
▁outs	-8785
▁outw	-8786
▁pain	-8787
▁pall	-8788
▁pelt	-8789
▁penc	-8790
▁perp	-8791
▁pers	-8792
▁pill	-8793
▁pist	-8794
▁plat	-8795
▁plum	-8796
▁pock	-8797
▁prea	-8798
▁pref	-8799
Si	-8800
az	-8801
ln	-8802
▁q	-8803
Pri	-8804
agn	-8805
ape	-8806
hev	-8807
lan	-8808
oin	-8809
pec	-8810
pso	-8811
raz	-8812
uls	-8813
was	-8814
born	-8815
cove	-8816
erat	-8817
erri	-8818
espe	-8819
haps	-8820
hite	-8821
ifti	-8822
olle	-8823
orns	-8824
orta	-8825
quas	-8826
qued	-8827
quer	-8828
repe	-8829
ripp	-8830
stal	-8831
umps	-8832
▁Beh	-8833
▁Inc	-8834
▁Pri	-8835
▁Spe	-8836
▁Squ	-8837
▁chi	-8838
▁dea	-8839
▁def	-8840
▁fig	-8841
▁glo	-8842
▁lis	-8843
▁pee	-8844
▁pur	-8845
▁sla	-8846
▁smi	-8847
▁smu	-8848
▁tow	-8849
Night	-8850
arche	-8851
atche	-8852
aving	-8853
ffled	-8854
ifice	-8855
igher	-8856
irche	-8857
olite	-8858
orten	-8859
ouseh	-8860
quall	-8861
there	-8862
utche	-8863
▁Mean	-8864
▁Wils	-8865
▁Year	-8866
▁betw	-8867
▁chir	-8868
▁fift	-8869
▁gran	-8870
▁mayb	-8871
▁pois	-8872
▁prej	-8873
▁proo	-8874
▁pros	-8875
▁puzz	-8876
▁rang	-8877
▁rasc	-8878
▁reas	-8879
▁rece	-8880
▁reck	-8881
▁recl	-8882
▁reco	-8883
▁reel	-8884
▁rein	-8885
▁rele	-8886
▁requ	-8887
▁ring	-8888
▁roam	-8889
▁rumb	-8890
▁runn	-8891
▁rust	-8892
▁sacr	-8893
▁sail	-8894
▁scal	-8895
▁scar	-8896
▁scat	-8897
▁scen	-8898
▁scor	-8899
Ru	-8900
db	-8901
la	-8902
mp	-8903
mt	-8904
nr	-8905
xa	-8906
Goo	-8907
Mag	-8908
Rat	-8909
aly	-8910
cul	-8911
dic	-8912
hap	-8913
icl	-8914
igg	-8915
oti	-8916
owa	-8917
pow	-8918
son	-8919
swe	-8920
thl	-8921
tic	-8922
ulp	-8923
utc	-8924
web	-8925
woo	-8926
▁Po	-8927
▁ic	-8928
agon	-8929
avel	-8930
eave	-8931
elve	-8932
eren	-8933
fair	-8934
fish	-8935
fled	-8936
ican	-8937
ices	-8938
icul	-8939
ishm	-8940
ittl	-8941
ived	-8942
lave	-8943
lear	-8944
ober	-8945
olic	-8946
ourn	-8947
pair	-8948
reag	-8949
reng	-8950
tend	-8951
uest	-8952
ulou	-8953
vate	-8954
were	-8955
wish	-8956
▁Pin	-8957
▁Ple	-8958
▁Rat	-8959
▁Ret	-8960
▁Rif	-8961
▁Shy	-8962
▁Swe	-8963
▁cri	-8964
▁las	-8965
▁pag	-8966
▁swe	-8967
antag	-8968
arate	-8969
erved	-8970
ieved	-8971
ishon	-8972
olate	-8973
opled	-8974
ortan	-8975
quest	-8976
rench	-8977
stair	-8978
unken	-8979
▁Pick	-8980
▁bedt	-8981
▁conj	-8982
▁scre	-8983
▁scro	-8984
▁scur	-8985
▁seal	-8986
▁seas	-8987
▁seld	-8988
▁sens	-8989
▁sett	-8990
▁shak	-8991
▁sham	-8992
▁shap	-8993
▁shar	-8994
▁shat	-8995
▁shif	-8996
▁shin	-8997
▁shir	-8998
▁shor	-8999
Es	-9000
Wen	-9001
erg	-9002
sti	-9003
Each	-9004
each	-9005
fied	-9006
iage	-9007
lend	-9008
lock	-9009
ockh	-9010
otho	-9011
pber	-9012
pied	-9013
sill	-9014
vice	-9015
▁Gat	-9016
▁enc	-9017
▁enj	-9018
▁rob	-9019
anber	-9020
▁Lock	-9021
▁chur	-9022
▁deat	-9023
▁shot	-9024
▁shre	-9025
▁sitt	-9026
▁skir	-9027
▁slab	-9028
▁slat	-9029
▁slei	-9030
▁slop	-9031
▁smil	-9032
▁smok	-9033
▁smud	-9034
▁snar	-9035
▁snat	-9036
▁snee	-9037
▁snor	-9038
▁sodd	-9039
▁sole	-9040
▁spad	-9041
▁spec	-9042
▁spen	-9043
▁spid	-9044
▁spin	-9045
▁spir	-9046
▁spor	-9047
▁spre	-9048
▁spru	-9049
▁spun	-9050
▁stal	-9051
▁stam	-9052
▁stat	-9053
▁stee	-9054
▁stif	-9055
▁stol	-9056
▁ston	-9057
▁stoo	-9058
▁stru	-9059
▁stum	-9060
▁stur	-9061
▁subd	-9062
▁suck	-9063
▁sudd	-9064
▁suff	-9065
▁sull	-9066
▁sunk	-9067
▁sunl	-9068
▁sunn	-9069
▁supp	-9070
▁surp	-9071
▁swam	-9072
▁swar	-9073
▁swee	-9074
▁swun	-9075
▁tann	-9076
▁teac	-9077
▁teet	-9078
▁tele	-9079
▁tent	-9080
▁thei	-9081
▁ther	-9082
▁thes	-9083
▁thie	-9084
▁thit	-9085
▁thou	-9086
▁thre	-9087
▁thro	-9088
▁thum	-9089
▁topp	-9090
▁trad	-9091
▁tram	-9092
▁trem	-9093
▁trou	-9094
▁trun	-9095
▁trut	-9096
▁unde	-9097
▁unhe	-9098
▁unre	-9099
▁unse	-9100
▁upst	-9101
▁vall	-9102
▁vast	-9103
▁wand	-9104
▁warp	-9105
▁wast	-9106
▁watc	-9107
▁weat	-9108
▁weep	-9109
▁wend	-9110
▁whee	-9111
▁whet	-9112
▁whin	-9113
▁whip	-9114
▁whit	-9115
▁whol	-9116
▁wont	-9117
▁wort	-9118
▁wret	-9119
▁yell	-9120
▁youn	-9121
Should	-9122
Twould	-9123
Yellow	-9124
aching	-9125
ackful	-9126
aiming	-9127
aiting	-9128
alance	-9129
alised	-9130
alking	-9131
alling	-9132
anches	-9133
ancies	-9134
anding	-9135
ankets	-9136
anking	-9137
anning	-9138
antage	-9139
antern	-9140
araded	-9141
arcely	-9142
arking	-9143
arling	-9144
arming	-9145
arnest	-9146
arning	-9147
arnish	-9148
arther	-9149
arthly	-9150
arting	-9151
ashion	-9152
assage	-9153
assing	-9154
assion	-9155
asture	-9156
astway	-9157
asured	-9158
athers	-9159
athing	-9160
atters	-9161
attled	-9162
auties	-9163
ayette	-9164
bering	-9165
braced	-9166
cation	-9167
catter	-9168
cealed	-9169
ceived	-9170
cember	-9171
cerned	-9172
cessit	-9173
ciable	-9174
cially	-9175
ciated	-9176
cident	-9177
cience	-9178
consol	-9179
cribed	-9180
ctober	-9181
ddenly	-9182
ddress	-9183
earanc	-9184
eather	-9185
ection	-9186
edling	-9187
eeking	-9188
eeling	-9189
effect	-9190
eiling	-9191
either	-9192
elight	-9193
elling	-9194
ellows	-9195
enburg	-9196
eneath	-9197
enough	-9198
ensons	-9199
enying	-9200
erious	-9201
erries	-9202
erring	-9203
ertain	-9204
ervous	-9205
esired	-9206
essage	-9207
estion	-9208
etched	-9209
etered	-9210
ething	-9211
etting	-9212
etween	-9213
fening	-9214
finger	-9215
ghting	-9216
ghways	-9217
gument	-9218
hanged	-9219
haring	-9220
hatter	-9221
hecked	-9222
heless	-9223
hering	-9224
hought	-9225
ickers	-9226
ickles	-9227
ickory	-9228
idence	-9229
iderat	-9230
ideway	-9231
iendly	-9232
iffere	-9233
iftier	-9234
ifting	-9235
ighted	-9236
ighten	-9237
ighter	-9238
ightly	-9239
ighway	-9240
ignals	-9241
ignity	-9242
ilders	-9243
ilding	-9244
ildren	-9245
ilence	-9246
ilfull	-9247
illage	-9248
imbing	-9249
import	-9250
incere	-9251
inding	-9252
indred	-9253
ingers	-9254
ingled	-9255
inking	-9256
inning	-9257
insfol	-9258
iscuit	-9259
ishing	-9260
istake	-9261
istian	-9262
itated	-9263
itchen	-9264
itcher	-9265
ithout	-9266
ittled	-9267
keless	-9268
lecked	-9269
lender	-9270
lephon	-9271
llowed	-9272
locked	-9273
lpless	-9274
ltered	-9275
mefull	-9276
member	-9277
merged	-9278
minded	-9279
mocrat	-9280
mories	-9281
ncefor	-9282
nderst	-9283
nother	-9284
oating	-9285
ointed	-9286
olders	-9287
olding	-9288
olence	-9289
olving	-9290
omised	-9291
omping	-9292
onious	-9293
onsens	-9294
ooling	-9295
oolish	-9296
ooning	-9297
orever	-9298
ortens	-9299
orting	-9300
othing	-9301
oticed	-9302
ottest	-9303
oubled	-9304
oubted	-9305
ouches	-9306
oulder	-9307
oundar	-9308
ounted	-9309
ounter	-9310
ountry	-9311
ourage	-9312
ourish	-9313
owered	-9314
owever	-9315
owhere	-9316
pected	-9317
perous	-9318
pocket	-9319
ppened	-9320
ragged	-9321
raight	-9322
raping	-9323
rapper	-9324
rating	-9325
rawing	-9326
reaten	-9327
reathe	-9328
reatly	-9329
regard	-9330
repedi	-9331
rified	-9332
ripped	-9333
rodden	-9334
rofess	-9335
roping	-9336
ropped	-9337
rother	-9338
rought	-9339
ryside	-9340
sition	-9341
spires	-9342
square	-9343
ssence	-9344
surdly	-9345
ternat	-9346
terpan	-9347
thless	-9348
thward	-9349
uckily	-9350
udiced	-9351
uffled	-9352
ullied	-9353
umbers	-9354
umbled	-9355
umbles	-9356
uments	-9357
umpled	-9358
undred	-9359
unning	-9360
unters	-9361
uppose	-9362
upying	-9363
urance	-9364
urning	-9365
urpose	-9366
ursery	-9367
ursued	-9368
urther	-9369
usting	-9370
utches	-9371
utside	-9372
utting	-9373
vately	-9374
verage	-9375
verall	-9376
weeten	-9377
wester	-9378
wobbed	-9379
ything	-9380
▁Chick	-9381
▁Conce	-9382
▁Dress	-9383
▁Frank	-9384
▁Junct	-9385
▁Meser	-9386
▁Perha	-9387
▁Press	-9388
▁Recur	-9389
▁Separ	-9390
▁Slipp	-9391
▁Someh	-9392
▁Somet	-9393
▁Somew	-9394
▁Sound	-9395
▁South	-9396
▁Spraw	-9397
▁Thing	-9398
▁Whate	-9399
▁Woods	-9400
▁Yanke	-9401
▁alter	-9402
▁alway	-9403
▁ameth	-9404
▁answe	-9405
▁appet	-9406
▁arche	-9407
▁assum	-9408
▁assur	-9409
▁backw	-9410
▁baref	-9411
▁bedro	-9412
▁bedst	-9413
▁betwe	-9414
▁bless	-9415
▁bloss	-9416
▁boost	-9417
▁brist	-9418
▁britt	-9419
▁bushe	-9420
▁busin	-9421
▁caref	-9422
▁celeb	-9423
▁chall	-9424
▁chanc	-9425
▁chara	-9426
▁chore	-9427
▁cling	-9428
▁clums	-9429
▁clust	-9430
▁coast	-9431
▁crann	-9432
▁creas	-9433
▁cross	-9434
▁darkn	-9435
▁decid	-9436
▁depth	-9437
▁desce	-9438
▁discr	-9439
▁dispo	-9440
▁disre	-9441
▁diver	-9442
▁doory	-9443
▁downw	-9444
▁dragg	-9445
▁dread	-9446
▁drool	-9447
▁drows	-9448
▁dwell	-9449
▁exact	-9450
▁excav	-9451
▁final	-9452
▁firep	-9453
▁footh	-9454
▁fount	-9455
▁fourt	-9456
▁gener	-9457
▁gladn	-9458
▁glanc	-9459
▁handi	-9460
▁handl	-9461
▁heave	-9462
▁herse	-9463
▁himse	-9464
▁hopel	-9465
▁impat	-9466
▁knuck	-9467
▁lampl	-9468
▁liken	-9469
▁liter	-9470
▁livel	-9471
▁lones	-9472
▁manag	-9473
▁marri	-9474
▁medic	-9475
▁mirac	-9476
▁misch	-9477
▁miser	-9478
▁mount	-9479
▁neare	-9480
▁nobod	-9481
▁notic	-9482
▁nowad	-9483
▁occur	-9484
▁offen	-9485
▁orcha	-9486
▁ourse	-9487
▁outsp	-9488
▁overd	-9489
▁overe	-9490
▁parad	-9491
▁perha	-9492
▁pleas	-9493
▁polic	-9494
▁polit	-9495
▁propo	-9496
▁pulle	-9497
▁reall	-9498
▁reced	-9499
▁recei	-9500
▁recon	-9501
▁recor	-9502
▁resur	-9503
▁revis	-9504
▁scout	-9505
▁seedp	-9506
▁separ	-9507
▁sever	-9508
▁shame	-9509
▁shedd	-9510
▁shell	-9511
▁shift	-9512
▁shive	-9513
▁shotg	-9514
▁shove	-9515
▁shrew	-9516
▁shrie	-9517
▁shudd	-9518
▁sideh	-9519
▁skinn	-9520
▁skirt	-9521
▁snort	-9522
▁snowl	-9523
▁solem	-9524
▁someb	-9525
▁someh	-9526
▁somet	-9527
▁somew	-9528
▁spill	-9529
▁sport	-9530
▁squas	-9531
▁squee	-9532
▁squin	-9533
▁stain	-9534
▁stair	-9535
▁stamp	-9536
▁stran	-9537
▁stren	-9538
▁stret	-9539
▁swing	-9540
▁terra	-9541
▁thous	-9542
▁thrif	-9543
▁tobac	-9544
▁toget	-9545
▁tongu	-9546
▁tramp	-9547
▁treas	-9548
▁unaid	-9549
▁whene	-9550
▁wides	-9551
▁windf	-9552
▁windr	-9553
▁withd	-9554
▁wrink	-9555
ackened	-9556
afening	-9557
alanced	-9558
anister	-9559
antages	-9560
arching	-9561
arisons	-9562
arkless	-9563
arlight	-9564
arlings	-9565
arrying	-9566
asoning	-9567
astways	-9568
atherly	-9569
athless	-9570
attling	-9571
blished	-9572
ccupied	-9573
ciences	-9574
cording	-9575
cribing	-9576
ctoring	-9577
cuments	-9578
ecember	-9579
emocrat	-9580
entered	-9581
errying	-9582
ersonal	-9583
eserted	-9584
estions	-9585
etained	-9586
everthe	-9587
fayette	-9588
fectual	-9589
ference	-9590
ferring	-9591
forting	-9592
ginning	-9593
guments	-9594
ideways	-9595
idnight	-9596
ifferen	-9597
iffness	-9598
igglers	-9599
ighbour	-9600
ighteen	-9601
ighting	-9602
ighways	-9603
illough	-9604
illside	-9605
impress	-9606
inating	-9607
ingered	-9608
inished	-9609
inkling	-9610
insfolk	-9611
iolence	-9612
ircling	-9613
irector	-9614
ireless	-9615
ishment	-9616
istance	-9617
istened	-9618
itating	-9619
itchfor	-9620
ithered	-9621
itively	-9622
jection	-9623
lephone	-9624
llowing	-9625
loading	-9626
mbering	-9627
ndering	-9628
neering	-9629
ngraded	-9630
nothing	-9631
noticed	-9632
nything	-9633
ociated	-9634
ockhold	-9635
ogether	-9636
oloured	-9637
onsider	-9638
ooryard	-9639
ordered	-9640
ornings	-9641
ortable	-9642
otherly	-9643
ottages	-9644
oubling	-9645
oughnut	-9646
oulders	-9647
oundary	-9648
ounding	-9649
ounting	-9650
ouquets	-9651
ourteen	-9652
ousness	-9653
pathise	-9654
perfect	-9655
pposing	-9656
pressed	-9657
ragging	-9658
reaking	-9659
reature	-9660
reckage	-9661
regular	-9662
reoccup	-9663
resting	-9664
ringing	-9665
rinkled	-9666
ssessed	-9667
stances	-9668
tertain	-9669
terward	-9670
ucation	-9671
umpling	-9672
unching	-9673
untless	-9674
urrough	-9675
vernous	-9676
vidence	-9677
weetest	-9678
▁Accept	-9679
▁Affect	-9680
▁Appare	-9681
▁Christ	-9682
▁Clemat	-9683
▁Enchan	-9684
▁Frankl	-9685
▁Friend	-9686
▁Includ	-9687
▁Montre	-9688
▁Republ	-9689
▁Sander	-9690
▁accomm	-9691
▁advanc	-9692
▁aftern	-9693
▁amethy	-9694
▁appare	-9695
▁avalan	-9696
▁beginn	-9697
▁behold	-9698
▁bewhis	-9699
▁bewild	-9700
▁birche	-9701
▁breakf	-9702
▁burrow	-9703
▁charco	-9704
▁compan	-9705
▁confus	-9706
▁convin	-9707
▁darken	-9708
▁depend	-9709
▁disapp	-9710
▁discha	-9711
▁dislod	-9712
▁distur	-9713
▁doorst	-9714
▁downst	-9715
▁driftw	-9716
▁encour	-9717
▁everyb	-9718
▁everyd	-9719
▁everyw	-9720
▁famili	-9721
▁firepl	-9722
▁footst	-9723
▁formid	-9724
▁fourte	-9725
▁furnit	-9726
▁furrow	-9727
▁gravey	-9728
▁harves	-9729
▁housef	-9730
▁househ	-9731
▁import	-9732
▁interl	-9733
▁laught	-9734
▁mistak	-9735
▁neighb	-9736
▁nightm	-9737
▁orchar	-9738
▁orchis	-9739
▁otherw	-9740
▁overhe	-9741
▁partic	-9742
▁prejud	-9743
▁princi	-9744
▁pulley	-9745
▁recoll	-9746
▁reconc	-9747
▁record	-9748
▁report	-9749
▁rightf	-9750
▁sacrif	-9751
▁satche	-9752
▁scalaw	-9753
▁sentim	-9754
▁shrive	-9755
▁sojour	-9756
▁squeez	-9757
▁stanch	-9758
▁stovep	-9759
▁strain	-9760
▁strand	-9761
▁strick	-9762
▁string	-9763
▁strugg	-9764
▁sullen	-9765
▁tarnis	-9766
▁themse	-9767
▁townsh	-9768
▁uncove	-9769
▁underg	-9770
▁undert	-9771
▁villag	-9772
▁whiche	-9773
▁whispe	-9774
▁wholes	-9775
▁withhe	-9776
▁woodch	-9777
▁yester	-9778
▁yourse	-9779
airbanks	-9780
anctimon	-9781
angement	-9782
aterwaul	-9783
athering	-9784
bjection	-9785
ccupying	-9786
consider	-9787
ddressed	-9788
dvancing	-9789
dwelling	-9790
earances	-9791
earching	-9792
eresting	-9793
erpetual	-9794
fortable	-9795
hevelled	-9796
hingling	-9797
hristian	-9798
ickering	-9799
iffening	-9800
ifferent	-9801
imonious	-9802
ischarge	-9803
istening	-9804
ithering	-9805
lephones	-9806
mperfect	-9807
nderness	-9808
omestead	-9809
onsensic	-9810
orthward	-9811
oughnuts	-9812
ouldered	-9813
ourished	-9814
ousandth	-9815
pberries	-9816
pecially	-9817
plaining	-9818
reatened	-9819
reathing	-9820
redulous	-9821
repedium	-9822
rivately	-9823
rofessor	-9824
sociated	-9825
standing	-9826
together	-9827
ublished	-9828
ulsively	-9829
unenburg	-9830
unningly	-9831
urprised	-9832
uthority	-9833
uttering	-9834
▁Sometim	-9835
▁accompl	-9836
▁beautif	-9837
▁butterf	-9838
▁challen	-9839
▁conjure	-9840
▁consign	-9841
▁counter	-9842
▁discrim	-9843
▁disgust	-9844
▁exclaim	-9845
▁exhaust	-9846
▁feature	-9847
▁feeling	-9848
▁illimit	-9849
▁interst	-9850
▁outdoor	-9851
▁overall	-9852
▁politic	-9853
▁possess	-9854
▁prescri	-9855
▁profess	-9856
▁prosper	-9857
▁resurre	-9858
▁serious	-9859
▁slipper	-9860
▁somebod	-9861
▁sometim	-9862
▁springt	-9863
▁travell	-9864
▁undecei	-9865
▁underst	-9866
▁unlight	-9867
▁whisper	-9868
▁windrow	-9869
▁youngst	-9870
allooning	-9871
anberries	-9872
ayfayette	-9873
cessities	-9874
credulous	-9875
escribing	-9876
idespread	-9877
ightening	-9878
irregular	-9879
lebrating	-9880
nderstand	-9881
nonsensic	-9882
oodsville	-9883
ouldering	-9884
possessed	-9885
rangement	-9886
ternation	-9887
ueberries	-9888
vereagern	-9889
verything	-9890
verywhere	-9891
▁Burrough	-9892
▁Neverthe	-9893
▁Preoccup	-9894
▁Republic	-9895
▁Willough	-9896
▁bewhiske	-9897
▁carefull	-9898
▁comparis	-9899
▁differen	-9900
▁everybod	-9901
▁footstep	-9902
▁hencefor	-9903
▁inconsol	-9904
▁ineffect	-9905
▁interlud	-9906
▁pitchfor	-9907
▁repeated	-9908
▁strangen	-9909
▁telephon	-9910
▁unpocket	-9911
cumstances	-9912
ensitively	-9913
especially	-9914
outhwester	-9915
ranberries	-9916
understand	-9917
yprepedium	-9918
▁Imperfect	-9919
▁disregard	-9920
▁prescript	-9921
▁resurrect	-9922
▁rightfull	-9923
▁sanctimon	-9924
▁stockhold	-9925
▁undergrow	-9926
criminating	-9927
▁accomplish	-9928
▁considerat	-9929
▁inconsider	-9930
ircumstances	-9931
vereagerness	-9932
▁	-9933
e	-9934
t	-9935
o	-9936
a	-9937
h	-9938
n	-9939
s	-9940
i	-9941
r	-9942
d	-9943
l	-9944
u	-9945
w	-9946
m	-9947
g	-9948
y	-9949
f	-9950
c	-9951
.	-9952
,	-9953
k	-9954
b	-9955
p	-9956
'	-9957
I	-9958
"	-9959
v	-9960
T	-9961
A	-9962
W	-9963
H	-9964
?	-9965
S	-9966
B	-9967
O	-9968
Y	-9969
-	-9970
!	-9971
;	-9972
L	-9973
:	-9974
M	-9975
N	-9976
F	-9977
D	-9978
j	-9979
C	-9980
G	-9981
x	-9982
z	-9983
P	-9984
R	-9985
q	-9986
J	-9987
E	-9988
U	-9989
